{
  "version": "1.0",
  "truncation": {
    "direction": "Right",
    "max_length": 128,
    "strategy": "LongestFirst",
    "stride": 0
  },
  "padding": {
    "strategy": {
      "Fixed": 128
    },
    "direction": "Right",
    "pad_to_multiple_of": null,
    "pad_id": 0,
    "pad_type_id": 0,
    "pad_token": "<pad>"
  },
  "added_tokens": [
    {
      "id": 0,
      "content": "<pad>",
      "single_word": false,
      "lstrip": false,
      "rstrip": false,
      "normalized": false,
      "special": true
    },
    {
      "id": 1,
      "content": "<sos>",
      "single_word": false,
      "lstrip": false,
      "rstrip": false,
      "normalized": false,
      "special": true
    },
    {
      "id": 2,
      "content": "<eos>",
      "single_word": false,
      "lstrip": false,
      "rstrip": false,
      "normalized": false,
      "special": true
    },
    {
      "id": 3,
      "content": "<unk>",
      "single_word": false,
      "lstrip": false,
      "rstrip": false,
      "normalized": false,
      "special": true
    }
  ],
  "normalizer": null,
  "pre_tokenizer": {
    "type": "ByteLevel",
    "add_prefix_space": false,
    "trim_offsets": true,
    "use_regex": true
  },
  "post_processor": {
    "type": "TemplateProcessing",
    "single": [
      {
        "SpecialToken": {
          "id": "<sos>",
          "type_id": 0
        }
      },
      {
        "Sequence": {
          "id": "A",
          "type_id": 0
        }
      },
      {
        "SpecialToken": {
          "id": "<eos>",
          "type_id": 0
        }
      }
    ],
    "pair": [
      {
        "SpecialToken": {
          "id": "<sos>",
          "type_id": 0
        }
      },
      {
        "Sequence": {
          "id": "A",
          "type_id": 0
        }
      },
      {
        "SpecialToken": {
          "id": "<eos>",
          "type_id": 0
        }
      },
      {
        "SpecialToken": {
          "id": "<sos>",
          "type_id": 0
        }
      },
      {
        "Sequence": {
          "id": "B",
          "type_id": 1
        }
      },
      {
        "SpecialToken": {
          "id": "<eos>",
          "type_id": 1
        }
      }
    ],
    "special_tokens": {
      "<eos>": {
        "id": "<eos>",
        "ids": [
          2
        ],
        "tokens": [
          "<eos>"
        ]
      },
      "<sos>": {
        "id": "<sos>",
        "ids": [
          1
        ],
        "tokens": [
          "<sos>"
        ]
      }
    }
  },
  "decoder": {
    "type": "ByteLevel",
    "add_prefix_space": true,
    "trim_offsets": true,
    "use_regex": true
  },
  "model": {
    "type": "BPE",
    "dropout": null,
    "unk_token": "<unk>",
    "continuing_subword_prefix": null,
    "end_of_word_suffix": null,
    "fuse_unk": false,
    "byte_fallback": false,
    "ignore_merges": false,
    "vocab": {
      "<pad>": 0,
      "<sos>": 1,
      "<eos>": 2,
      "<unk>": 3,
      "!": 4,
      "\"": 5,
      "#": 6,
      "$": 7,
      "%": 8,
      "&": 9,
      "'": 10,
      "(": 11,
      ")": 12,
      "*": 13,
      "+": 14,
      ",": 15,
      "-": 16,
      ".": 17,
      "/": 18,
      "0": 19,
      "1": 20,
      "2": 21,
      "3": 22,
      "4": 23,
      "5": 24,
      "6": 25,
      "7": 26,
      "8": 27,
      "9": 28,
      ":": 29,
      ";": 30,
      "<": 31,
      "=": 32,
      ">": 33,
      "?": 34,
      "@": 35,
      "A": 36,
      "B": 37,
      "C": 38,
      "D": 39,
      "E": 40,
      "F": 41,
      "G": 42,
      "H": 43,
      "I": 44,
      "J": 45,
      "K": 46,
      "L": 47,
      "M": 48,
      "N": 49,
      "O": 50,
      "P": 51,
      "Q": 52,
      "R": 53,
      "S": 54,
      "T": 55,
      "U": 56,
      "V": 57,
      "W": 58,
      "X": 59,
      "Y": 60,
      "Z": 61,
      "[": 62,
      "\\": 63,
      "]": 64,
      "^": 65,
      "_": 66,
      "`": 67,
      "a": 68,
      "b": 69,
      "c": 70,
      "d": 71,
      "e": 72,
      "f": 73,
      "g": 74,
      "h": 75,
      "i": 76,
      "j": 77,
      "k": 78,
      "l": 79,
      "m": 80,
      "n": 81,
      "o": 82,
      "p": 83,
      "q": 84,
      "r": 85,
      "s": 86,
      "t": 87,
      "u": 88,
      "v": 89,
      "w": 90,
      "x": 91,
      "y": 92,
      "z": 93,
      "{": 94,
      "|": 95,
      "}": 96,
      "~": 97,
      "¡": 98,
      "¢": 99,
      "£": 100,
      "¤": 101,
      "¥": 102,
      "¦": 103,
      "§": 104,
      "¨": 105,
      "©": 106,
      "ª": 107,
      "«": 108,
      "¬": 109,
      "®": 110,
      "¯": 111,
      "°": 112,
      "±": 113,
      "²": 114,
      "³": 115,
      "´": 116,
      "µ": 117,
      "¶": 118,
      "·": 119,
      "¸": 120,
      "¹": 121,
      "º": 122,
      "»": 123,
      "¼": 124,
      "½": 125,
      "¾": 126,
      "¿": 127,
      "Â": 128,
      "Ã": 129,
      "Ä": 130,
      "Å": 131,
      "Ì": 132,
      "Î": 133,
      "Ï": 134,
      "Ð": 135,
      "Ñ": 136,
      "à": 137,
      "á": 138,
      "â": 139,
      "ã": 140,
      "ä": 141,
      "å": 142,
      "ì": 143,
      "í": 144,
      "ï": 145,
      "Ġ": 146,
      "Ģ": 147,
      "ģ": 148,
      "Ĥ": 149,
      "ĥ": 150,
      "Ħ": 151,
      "ĩ": 152,
      "Ī": 153,
      "ī": 154,
      "Ĭ": 155,
      "ĭ": 156,
      "Į": 157,
      "į": 158,
      "İ": 159,
      "ı": 160,
      "Ĳ": 161,
      "ĳ": 162,
      "Ĵ": 163,
      "ĵ": 164,
      "Ķ": 165,
      "ķ": 166,
      "ĸ": 167,
      "Ĺ": 168,
      "ĺ": 169,
      "Ļ": 170,
      "ļ": 171,
      "Ľ": 172,
      "ľ": 173,
      "Ŀ": 174,
      "ŀ": 175,
      "Ł": 176,
      "ł": 177,
      "Ń": 178,
      "Ġt": 179,
      "Ġa": 180,
      "en": 181,
      "es": 182,
      "er": 183,
      "Ġd": 184,
      "on": 185,
      "in": 186,
      "Ġs": 187,
      "Ġl": 188,
      "Ġp": 189,
      "Ġc": 190,
      "Ġde": 191,
      "ar": 192,
      "or": 193,
      "Ġth": 194,
      "os": 195,
      "an": 196,
      "Ġm": 197,
      "as": 198,
      "re": 199,
      "at": 200,
      "ci": 201,
      "ou": 202,
      "al": 203,
      "Ġh": 204,
      "Ġthe": 205,
      "it": 206,
      "is": 207,
      "el": 208,
      "Ġy": 209,
      "Ġo": 210,
      "ad": 211,
      "ent": 212,
      "Ġw": 213,
      "qu": 214,
      "ed": 215,
      "Ġf": 216,
      "Ġb": 217,
      "Ġn": 218,
      "om": 219,
      "Ġin": 220,
      "ic": 221,
      "un": 222,
      "Ã³": 223,
      "Ġto": 224,
      "Ġla": 225,
      "Ġqu": 226,
      "ion": 227,
      "ing": 228,
      "Ġof": 229,
      "Ġan": 230,
      "Ġes": 231,
      "id": 232,
      "ÃŃ": 233,
      "ro": 234,
      "ec": 235,
      "Ġen": 236,
      "Ġg": 237,
      "Ġque": 238,
      "am": 239,
      "Ã³n": 240,
      "Ġel": 241,
      "..": 242,
      "le": 243,
      "Ġre": 244,
      "Ġcon": 245,
      "Ġyou": 246,
      "st": 247,
      "Ġand": 248,
      "Ã¡": 249,
      "aci": 250,
      "il": 251,
      "Ġun": 252,
      "ĠI": 253,
      "ab": 254,
      "Ã©": 255,
      "em": 256,
      "im": 257,
      "Ġv": 258,
      "Ġno": 259,
      "ol": 260,
      "ig": 261,
      "et": 262,
      "ĠC": 263,
      "res": 264,
      "iv": 265,
      "ĠS": 266,
      "Ġe": 267,
      "Ġse": 268,
      "ir": 269,
      "Ġal": 270,
      "ac": 271,
      "Â¿": 272,
      "Ġsu": 273,
      "ation": 274,
      "te": 275,
      "ur": 276,
      "tr": 277,
      "Ġlos": 278,
      "Ġpar": 279,
      "do": 280,
      "Th": 281,
      "ĠA": 282,
      "ay": 283,
      "to": 284,
      "Ġme": 285,
      "ul": 286,
      "ut": 287,
      "ter": 288,
      "Ġpro": 289,
      "Ġfor": 290,
      "ĠM": 291,
      "Ġon": 292,
      "Ġcom": 293,
      "...": 294,
      "aciÃ³n": 295,
      "Ġlas": 296,
      "ve": 297,
      "ĠP": 298,
      "'s": 299,
      "us": 300,
      "ow": 301,
      "Ġest": 302,
      "ere": 303,
      "Ġbe": 304,
      "Ġit": 305,
      "ot": 306,
      "Ġ2": 307,
      "Ġdel": 308,
      "ĠE": 309,
      "ado": 310,
      "Ġthat": 311,
      "ien": 312,
      "Ġlo": 313,
      "ch": 314,
      "Ġha": 315,
      "Ġr": 316,
      "No": 317,
      "ment": 318,
      "ta": 319,
      "Ġis": 320,
      "od": 321,
      "ici": 322,
      "ĠD": 323,
      "ver": 324,
      "Ġas": 325,
      "Ġwh": 326,
      "ce": 327,
      "ÃŃa": 328,
      "Ġper": 329,
      "Ġtr": 330,
      "Ġpara": 331,
      "Ġ1": 332,
      "'t": 333,
      "if": 334,
      "ct": 335,
      "lo": 336,
      "The": 337,
      "ant": 338,
      "Ġpor": 339,
      "est": 340,
      "ap": 341,
      "ly": 342,
      "th": 343,
      "ust": 344,
      "ĠG": 345,
      "Ġso": 346,
      "ib": 347,
      "ith": 348,
      "Ġ(": 349,
      "Ġex": 350,
      "ht": 351,
      "Ġ20": 352,
      "ĠR": 353,
      "Ã±": 354,
      "iz": 355,
      "ke": 356,
      "ill": 357,
      "ier": 358,
      "Ġuna": 359,
      "ud": 360,
      "um": 361,
      "up": 362,
      "ia": 363,
      "ue": 364,
      "ort": 365,
      "Ġj": 366,
      "You": 367,
      "Ġwith": 368,
      "ect": 369,
      "se": 370,
      "ones": 371,
      "ld": 372,
      "Ġpr": 373,
      "ente": 374,
      "end": 375,
      "Â¡": 376,
      "ist": 377,
      "ĠB": 378,
      "ĠÂ¿": 379,
      "Ġres": 380,
      "ra": 381,
      "io": 382,
      "ĠT": 383,
      "ĠL": 384,
      "ĠN": 385,
      "Ġdo": 386,
      "ight": 387,
      "and": 388,
      "go": 389,
      "ĠH": 390,
      "ate": 391,
      "Ġle": 392,
      "bre": 393,
      "ĠU": 394,
      "Ġhe": 395,
      "out": 396,
      "for": 397,
      "idad": 398,
      "Ġk": 399,
      "Ã¡s": 400,
      "op": 401,
      "Ãº": 402,
      "Ġdes": 403,
      "Ġsh": 404,
      "ell": 405,
      "nd": 406,
      "Ġwas": 407,
      "Ġor": 408,
      "ies": 409,
      "enci": 410,
      "Ġgo": 411,
      "ĠF": 412,
      "Ġmu": 413,
      "ie": 414,
      "Wh": 415,
      "ĠO": 416,
      "Ġnot": 417,
      "Ġhave": 418,
      "Ġare": 419,
      "ada": 420,
      "Ġ201": 421,
      "ient": 422,
      "port": 423,
      "ll": 424,
      "ould": 425,
      "Ġar": 426,
      "Ġfr": 427,
      "iÃ³n": 428,
      "pe": 429,
      "ando": 430,
      "Ġap": 431,
      "Ġat": 432,
      "gr": 433,
      "ers": 434,
      "Ġch": 435,
      "Ġab": 436,
      "ados": 437,
      "ero": 438,
      "Ġcu": 439,
      "ive": 440,
      "Ġac": 441,
      "ales": 442,
      "lic": 443,
      "ess": 444,
      "Ġim": 445,
      "Ġthis": 446,
      "ido": 447,
      "Ġpu": 448,
      "Ġst": 449,
      "form": 450,
      "Qu": 451,
      "oc": 452,
      "ech": 453,
      "ĠJ": 454,
      "ep": 455,
      "ag": 456,
      "Ġwe": 457,
      "Ġne": 458,
      "per": 459,
      "our": 460,
      "Ġser": 461,
      "ome": 462,
      "ciÃ³n": 463,
      "Ġyour": 464,
      "ber": 465,
      "Ġpl": 466,
      "Ġall": 467,
      "emp": 468,
      "ain": 469,
      "Ġdis": 470,
      "ard": 471,
      "oy": 472,
      "ity": 473,
      "Ġby": 474,
      "aciones": 475,
      "Ġkn": 476,
      "aj": 477,
      "Ġpre": 478,
      "Ġcan": 479,
      "ip": 480,
      "ĠCon": 481,
      "Ġmy": 482,
      "all": 483,
      "ica": 484,
      "ĠCom": 485,
      "Ġad": 486,
      "00": 487,
      "Ġcomp": 488,
      "Ġinter": 489,
      "Ġam": 490,
      "ĠUn": 491,
      "El": 492,
      "Ġpart": 493,
      "Ġent": 494,
      "cl": 495,
      "ations": 496,
      "Ġdon": 497,
      "ener": 498,
      "'m": 499,
      "Ġ-": 500,
      "ĠW": 501,
      "Ġag": 502,
      "Ġknow": 503,
      "Ġte": 504,
      "uc": 505,
      "'re": 506,
      "ice": 507,
      "Ġrec": 508,
      "Ġhas": 509,
      "Ġmi": 510,
      "de": 511,
      "amos": 512,
      "av": 513,
      "Ġman": 514,
      "Ã¡n": 515,
      "Ġgr": 516,
      "ff": 517,
      "oun": 518,
      "Es": 519,
      "Est": 520,
      "cial": 521,
      "able": 522,
      "Ġfin": 523,
      "art": 524,
      "era": 525,
      "Ġhab": 526,
      "der": 527,
      "Ġus": 528,
      "Ġcas": 529,
      "ens": 530,
      "amb": 531,
      "It": 532,
      "ios": 533,
      "mo": 534,
      "Ġsobre": 535,
      "ces": 536,
      "Ã©n": 537,
      "En": 538,
      "Ġver": 539,
      "Ġfrom": 540,
      "La": 541,
      "her": 542,
      "ĠmÃ¡s": 543,
      "encia": 544,
      "Ġ&": 545,
      "Ġwor": 546,
      "ult": 547,
      "gu": 548,
      "Ġcont": 549,
      "Ġact": 550,
      "Ġinform": 551,
      "'ll": 552,
      "Ġcomo": 553,
      "Ġsi": 554,
      "Ġpres": 555,
      "ante": 556,
      "ake": 557,
      "one": 558,
      "ans": 559,
      "Ġreg": 560,
      "ok": 561,
      "Ġout": 562,
      "Ġup": 563,
      "fer": 564,
      "Ġright": 565,
      "ire": 566,
      "He": 567,
      "Ġpued": 568,
      "son": 569,
      "ĠIn": 570,
      "ora": 571,
      "ug": 572,
      "emos": 573,
      "gan": 574,
      "Ġher": 575,
      "Ġco": 576,
      "Ġcons": 577,
      "Ġimp": 578,
      "iento": 579,
      "tar": 580,
      "ak": 581,
      "Ġwill": 582,
      "Ġcar": 583,
      "oug": 584,
      "ame": 585,
      "ure": 586,
      "Ġob": 587,
      "mit": 588,
      "ace": 589,
      "ven": 590,
      "ions": 591,
      "uer": 592,
      "ich": 593,
      "uman": 594,
      "la": 595,
      "ike": 596,
      "Ġpol": 597,
      "ational": 598,
      "ĠestÃ¡": 599,
      "ĠY": 600,
      "tra": 601,
      "ong": 602,
      "Ġtod": 603,
      "Ġhim": 604,
      "What": 605,
      "ord": 606,
      "ual": 607,
      "Ġ3": 608,
      "Ġwhat": 609,
      "Ġhere": 610,
      "ost": 611,
      "ance": 612,
      "ues": 613,
      "ico": 614,
      "ĠK": 615,
      "iÃ©n": 616,
      "acion": 617,
      "act": 618,
      "br": 619,
      "Ġthere": 620,
      "Ġjust": 621,
      "so": 622,
      "me": 623,
      "ge": 624,
      "ack": 625,
      "Ġget": 626,
      "vel": 627,
      "ida": 628,
      "ea": 629,
      "ĠNo": 630,
      "cu": 631,
      "ink": 632,
      "Ġcre": 633,
      "eneral": 634,
      "Ġresp": 635,
      "uen": 636,
      "Ġperson": 637,
      "ĠV": 638,
      "blic": 639,
      "Ġten": 640,
      "QuÃ©": 641,
      "Ġabout": 642,
      "jo": 643,
      "ĠSt": 644,
      "ther": 645,
      "Ġany": 646,
      "ase": 647,
      "ĠEst": 648,
      "Ġlike": 649,
      "Ġmed": 650,
      "pt": 651,
      "Ġone": 652,
      "ated": 653,
      "idas": 654,
      "Ġwant": 655,
      "Ġmis": 656,
      "az": 657,
      "ore": 658,
      "In": 659,
      "ime": 660,
      "Ġbeen": 661,
      "ence": 662,
      "que": 663,
      "Ġrel": 664,
      "ĠquÃ©": 665,
      "eg": 666,
      "lar": 667,
      "quÃŃ": 668,
      "pl": 669,
      "ine": 670,
      "Ġthey": 671,
      "co": 672,
      "na": 673,
      "ary": 674,
      "Ġpas": 675,
      "ativ": 676,
      "Ġmuch": 677,
      "ose": 678,
      "Ġbut": 679,
      "Ġmar": 680,
      "ores": 681,
      "Ġtu": 682,
      "und": 683,
      "ial": 684,
      "Ġwere": 685,
      "ous": 686,
      "Ġbien": 687,
      "aba": 688,
      "ish": 689,
      "Ġpe": 690,
      "itu": 691,
      "og": 692,
      "Ġind": 693,
      "gram": 694,
      "Ġ\"": 695,
      "Ġdeci": 696,
      "We": 697,
      "ĠCh": 698,
      "ma": 699,
      "ement": 700,
      "ina": 701,
      "Ġreal": 702,
      "err": 703,
      "Ġhac": 704,
      "Ġsol": 705,
      "Ġdid": 706,
      "Ġcr": 707,
      "ez": 708,
      "Ġsus": 709,
      "amente": 710,
      "Por": 711,
      "uct": 712,
      "Ġtien": 713,
      "eces": 714,
      "ian": 715,
      "Ġwould": 716,
      "min": 717,
      "par": 718,
      "iones": 719,
      "Ġgot": 720,
      "ach": 721,
      "Ġhad": 722,
      "ign": 723,
      "And": 724,
      "That": 725,
      "Ġprov": 726,
      "leg": 727,
      "Ã±os": 728,
      "adas": 729,
      "dad": 730,
      "Ġmat": 731,
      "Ġincl": 732,
      "rol": 733,
      "ĠÂ¡": 734,
      "erech": 735,
      "no": 736,
      "ca": 737,
      "ional": 738,
      "ear": 739,
      "ĠThe": 740,
      "'ve": 741,
      "iÃ³": 742,
      "Ġhuman": 743,
      "ĠaquÃŃ": 744,
      "Ġesto": 745,
      "Ġ5": 746,
      "Ġdeb": 747,
      "Ġthink": 748,
      "ast": 749,
      "Ġgu": 750,
      ").": 751,
      "ible": 752,
      "quot": 753,
      "Ġsee": 754,
      "ild": 755,
      "Ġsup": 756,
      "De": 757,
      "ific": 758,
      "man": 759,
      "ond": 760,
      "ound": 761,
      "Ġwork": 762,
      "ical": 763,
      "Se": 764,
      "ities": 765,
      "ates": 766,
      "ited": 767,
      "Ġpero": 768,
      "Ġif": 769,
      "ide": 770,
      "ob": 771,
      "les": 772,
      "Ġhis": 773,
      "Ġits": 774,
      "jer": 775,
      "Ġmin": 776,
      "Ġinst": 777,
      "Ġsome": 778,
      "Ġthem": 779,
      "Ġpod": 780,
      "ons": 781,
      "Ġro": 782,
      "ough": 783,
      "ambiÃ©n": 784,
      "cul": 785,
      "sion": 786,
      "anci": 787,
      "âĢ": 788,
      "Ġinv": 789,
      "idades": 790,
      "ry": 791,
      "Ġprop": 792,
      "Ãºn": 793,
      "Ã©s": 794,
      "Ġ2013": 795,
      "ecre": 796,
      "velop": 797,
      "Ġsin": 798,
      "Ġni": 799,
      "Ġtodo": 800,
      "Ġmay": 801,
      "abaj": 802,
      "Ġsab": 803,
      "Ġ200": 804,
      "20": 805,
      "ĠAs": 806,
      "Ġti": 807,
      "emb": 808,
      "ese": 809,
      "fr": 810,
      "Ġsa": 811,
      "pecial": 812,
      "Ġexp": 813,
      "Ġwho": 814,
      "Ġoff": 815,
      "Ġ19": 816,
      "ganiz": 817,
      "ament": 818,
      "he": 819,
      "gun": 820,
      "Ġdi": 821,
      "Oh": 822,
      "tros": 823,
      "Si": 824,
      "Ġsal": 825,
      "ÃŃas": 826,
      "ty": 827,
      "Ġcl": 828,
      "Lo": 829,
      "Ġpos": 830,
      "ÃŃs": 831,
      "Ġson": 832,
      "ade": 833,
      "ced": 834,
      "Ġunder": 835,
      "Ġintern": 836,
      "Ġtheir": 837,
      "thing": 838,
      "erv": 839,
      "Me": 840,
      "Ġcap": 841,
      "entes": 842,
      "tern": 843,
      "mente": 844,
      "cr": 845,
      "Ġeso": 846,
      "ember": 847,
      "Ġ4": 848,
      "way": 849,
      "isiÃ³n": 850,
      "Ġnow": 851,
      "acional": 852,
      "Ġ6": 853,
      "Ġpa": 854,
      "Ã±o": 855,
      "ick": 856,
      "use": 857,
      "Ġcoun": 858,
      "con": 859,
      "Ġprogram": 860,
      "Ġfe": 861,
      "ular": 862,
      "tos": 863,
      "mas": 864,
      "Ġtime": 865,
      "Ġaut": 866,
      "ress": 867,
      "Ġ2014": 868,
      "Ġhacer": 869,
      "Ġaf": 870,
      "ara": 871,
      "oso": 872,
      "igo": 873,
      "Ġtrans": 874,
      "ub": 875,
      "hora": 876,
      "ied": 877,
      "ĠÃ©": 878,
      "Ġderech": 879,
      "omet": 880,
      "Ġhay": 881,
      "This": 882,
      "aron": 883,
      "lev": 884,
      "ĠGr": 885,
      "Ġentre": 886,
      "arÃ¡": 887,
      "tic": 888,
      "ang": 889,
      "Pero": 890,
      "ne": 891,
      "Ġever": 892,
      "Ġsub": 893,
      "Ġshould": 894,
      "iol": 895,
      "Ġeste": 896,
      "Ġshe": 897,
      "reat": 898,
      "Ġwhich": 899,
      "cil": 900,
      "ble": 901,
      "Ġemp": 902,
      "ren": 903,
      "vent": 904,
      "Ġtrabaj": 905,
      "ĠYou": 906,
      "Ġrep": 907,
      "ecretar": 908,
      "ĠtambiÃ©n": 909,
      "Ġback": 910,
      "Ġserv": 911,
      "Ġcor": 912,
      "istr": 913,
      "Ġneces": 914,
      "Ġbet": 915,
      "ior": 916,
      "Ġtan": 917,
      "ura": 918,
      "apos": 919,
      "za": 920,
      "Ġgood": 921,
      "Ġmuy": 922,
      "Ġactiv": 923,
      "los": 924,
      "Ġacc": 925,
      "Ġyo": 926,
      "Ġesta": 927,
      "Ġmore": 928,
      "Ġother": 929,
      "Ġsay": 930,
      "But": 931,
      "ĠGeneral": 932,
      "Ġneed": 933,
      "Ġcould": 934,
      "itar": 935,
      "ĠPro": 936,
      "cion": 937,
      "iendo": 938,
      "Ġtake": 939,
      "Ġint": 940,
      "vo": 941,
      "Ġplan": 942,
      "Ġalso": 943,
      "ombre": 944,
      "Ġreport": 945,
      "Well": 946,
      "Ġwhen": 947,
      "Ġgoing": 948,
      "ef": 949,
      "Ġcent": 950,
      "Ġdevelop": 951,
      "amil": 952,
      "Ġcond": 953,
      "Ġtal": 954,
      "Ġbr": 955,
      "ĠRep": 956,
      "Ġdif": 957,
      "Ġover": 958,
      "ÃŃo": 959,
      "ĠUnited": 960,
      "Ġagain": 961,
      "ito": 962,
      "Ġvis": 963,
      "ana": 964,
      "Ġll": 965,
      "imin": 966,
      "Ġcontr": 967,
      "ings": 968,
      "Ġresol": 969,
      "Ġapp": 970,
      "ind": 971,
      "ĠseÃ±": 972,
      "Ġmej": 973,
      "uro": 974,
      "Ġcol": 975,
      "Ġimport": 976,
      "Ġtodos": 977,
      "own": 978,
      "'d": 979,
      "over": 980,
      "wn": 981,
      "Ġstr": 982,
      "uel": 983,
      "ank": 984,
      "ely": 985,
      "Ġalgo": 986,
      "Ġour": 987,
      "Ġlook": 988,
      "hing": 989,
      "pr": 990,
      "ĠTr": 991,
      "ias": 992,
      "Ġtw": 993,
      "Ġvez": 994,
      "ĠEl": 995,
      "Ġmujer": 996,
      "ite": 997,
      "Ġcountr": 998,
      "Ġquier": 999,
      "pp": 1000,
      "ople": 1001,
      "201": 1002,
      "Ġinc": 1003,
      "ĠUN": 1004,
      "ile": 1005,
      "ĠpaÃŃs": 1006,
      "oup": 1007,
      "amp": 1008,
      "ĠEn": 1009,
      "mitte": 1010,
      "Ġass": 1011,
      "Ġviol": 1012,
      "Ġfue": 1013,
      "Ġconf": 1014,
      "tle": 1015,
      "Ġsec": 1016,
      "ecto": 1017,
      "Ã³mo": 1018,
      "tain": 1019,
      "ÃŃan": 1020,
      "uy": 1021,
      "rollo": 1022,
      "ave": 1023,
      "abil": 1024,
      "mittee": 1025,
      "arrollo": 1026,
      "Ġbuen": 1027,
      "ict": 1028,
      "Ġhel": 1029,
      "Ġfir": 1030,
      "ution": 1031,
      "ĠMar": 1032,
      "Ġseg": 1033,
      "usted": 1034,
      "Ġed": 1035,
      "inci": 1036,
      "Ġwom": 1037,
      "Ġfamil": 1038,
      "Ġcome": 1039,
      "Ġpresent": 1040,
      "int": 1041,
      "ga": 1042,
      "Ġmon": 1043,
      "Ã³lo": 1044,
      "Ġid": 1045,
      "ĠSecretar": 1046,
      "car": 1047,
      "Ġmen": 1048,
      "Ġcuando": 1049,
      "Ġtiene": 1050,
      "uciÃ³n": 1051,
      "Ġsig": 1052,
      "ciones": 1053,
      "Ġway": 1054,
      "icos": 1055,
      "vis": 1056,
      "Ġtell": 1057,
      "Los": 1058,
      "Ġcos": 1059,
      "Ġnada": 1060,
      "ting": 1061,
      "ued": 1062,
      "Al": 1063,
      "ĠNations": 1064,
      "As": 1065,
      "ork": 1066,
      "Ġop": 1067,
      "ments": 1068,
      "Ġorganiz": 1069,
      "ĠMr": 1070,
      "iend": 1071,
      "ĠAr": 1072,
      "Ġequ": 1073,
      "They": 1074,
      "Ġpuede": 1075,
      "Con": 1076,
      "sel": 1077,
      "ree": 1078,
      "Ġya": 1079,
      "Ġoc": 1080,
      "ĠAl": 1081,
      "ario": 1082,
      "Ġyear": 1083,
      "ĠNaciones": 1084,
      "tes": 1085,
      "Ġchild": 1086,
      "ĠUnidas": 1087,
      "Ġcontin": 1088,
      "Ġfun": 1089,
      "Ġprom": 1090,
      "ife": 1091,
      "ĠLa": 1092,
      "Ġesp": 1093,
      "Un": 1094,
      "ft": 1095,
      "Ġhow": 1096,
      "iciÃ³n": 1097,
      "Ġleg": 1098,
      "Ãºblic": 1099,
      "iente": 1100,
      "ning": 1101,
      "Ġmejor": 1102,
      "Ġir": 1103,
      "Ġusted": 1104,
      "icip": 1105,
      "ĠasÃŃ": 1106,
      "enciÃ³n": 1107,
      "mis": 1108,
      "ices": 1109,
      "econ": 1110,
      "Cu": 1111,
      "ita": 1112,
      "ider": 1113,
      "There": 1114,
      "antes": 1115,
      "cer": 1116,
      "SÃŃ": 1117,
      "arÃ©": 1118,
      "Ġprim": 1119,
      "low": 1120,
      "Ġ7": 1121,
      "va": 1122,
      "ors": 1123,
      "ĠCommittee": 1124,
      "ĠEstados": 1125,
      "ĠStates": 1126,
      "Ġhan": 1127,
      "resent": 1128,
      "ece": 1129,
      "Ġdur": 1130,
      "ino": 1131,
      "Ġmo": 1132,
      "Ġdown": 1133,
      "Ġllev": 1134,
      "How": 1135,
      "cal": 1136,
      "arse": 1137,
      "ater": 1138,
      "ivo": 1139,
      "ĠIntern": 1140,
      "Ġtwo": 1141,
      "Ġpeople": 1142,
      "Ġevery": 1143,
      "ck": 1144,
      "med": 1145,
      "ĠÃ©l": 1146,
      "other": 1147,
      "ody": 1148,
      "If": 1149,
      "aÃ±": 1150,
      "ja": 1151,
      "Ġmeet": 1152,
      "be": 1153,
      "Ġcall": 1154,
      "lement": 1155,
      "Ġtiemp": 1156,
      "Ġsomet": 1157,
      "che": 1158,
      "Ġdem": 1159,
      "Ġmal": 1160,
      "idos": 1161,
      "Ġday": 1162,
      "Ġinto": 1163,
      "ĠCoun": 1164,
      "Ġdos": 1165,
      "adre": 1166,
      "oci": 1167,
      "Ġins": 1168,
      "Ġprod": 1169,
      "Te": 1170,
      "Ġlet": 1171,
      "Ġform": 1172,
      "ras": 1173,
      "tal": 1174,
      "we": 1175,
      "ÃŃcul": 1176,
      "Ġonly": 1177,
      "Ġmake": 1178,
      "ition": 1179,
      "Ġcab": 1180,
      "Ġnue": 1181,
      "ĠEs": 1182,
      "ative": 1183,
      "Ã¡r": 1184,
      "Ġlit": 1185,
      "Ġese": 1186,
      "Ġev": 1187,
      "oper": 1188,
      "ought": 1189,
      "fic": 1190,
      "fore": 1191,
      "get": 1192,
      "Ġmade": 1193,
      "ador": 1194,
      "Ġrequ": 1195,
      "Ġinclud": 1196,
      "Ġmust": 1197,
      "ĠDe": 1198,
      "Ġdesp": 1199,
      "uest": 1200,
      "abl": 1201,
      "So": 1202,
      "ĠaÃ±os": 1203,
      "Ġbas": 1204,
      "Ġref": 1205,
      "resid": 1206,
      "ory": 1207,
      "Ġnos": 1208,
      "iera": 1209,
      "Ġvery": 1210,
      "Ġterr": 1211,
      "Ġbec": 1212,
      "Ġparte": 1213,
      "ĠSr": 1214,
      "age": 1215,
      "Ġtiempo": 1216,
      "Ġthese": 1217,
      "Ġprot": 1218,
      "Ġ10": 1219,
      "Ġlib": 1220,
      "ĠmÃŃ": 1221,
      "uridad": 1222,
      "ject": 1223,
      "ood": 1224,
      "ause": 1225,
      "Com": 1226,
      "),": 1227,
      "por": 1228,
      "Ġado": 1229,
      "Ġ9": 1230,
      "ise": 1231,
      "Ġeff": 1232,
      "Ġnever": 1233,
      "rough": 1234,
      "ton": 1235,
      "Ġsp": 1236,
      "urs": 1237,
      "Ġtrat": 1238,
      "eah": 1239,
      "Ġtoo": 1240,
      "ivers": 1241,
      "Ġrecom": 1242,
      "ĠHe": 1243,
      "onna": 1244,
      "ĠAn": 1245,
      "Ġwhere": 1246,
      "Yo": 1247,
      "Ġera": 1248,
      "Ġfav": 1249,
      "ateg": 1250,
      "ele": 1251,
      "ten": 1252,
      "ating": 1253,
      "ema": 1254,
      "iew": 1255,
      "vi": 1256,
      "icas": 1257,
      "Ġcontra": 1258,
      "ĠOr": 1259,
      "Ġdecir": 1260,
      "Ġsaid": 1261,
      "rÃŃa": 1262,
      "Ġwell": 1263,
      "uck": 1264,
      "An": 1265,
      "arÃŃa": 1266,
      "sejo": 1267,
      "ento": 1268,
      "Ġbus": 1269,
      "ved": 1270,
      "urity": 1271,
      "ĠAd": 1272,
      "ĠPr": 1273,
      "ection": 1274,
      "Why": 1275,
      "Ad": 1276,
      "ted": 1277,
      "Ġred": 1278,
      "ĠRe": 1279,
      "Ġllam": 1280,
      "are": 1281,
      "Ġrights": 1282,
      "Ten": 1283,
      "Ġvol": 1284,
      "ivil": 1285,
      "ipo": 1286,
      "Ġecon": 1287,
      "irect": 1288,
      "Ġsupport": 1289,
      "igh": 1290,
      "tras": 1291,
      "Ġderechos": 1292,
      "ures": 1293,
      "Ġpo": 1294,
      "upo": 1295,
      "Ġdoes": 1296,
      "She": 1297,
      "omb": 1298,
      "Ġgust": 1299,
      "Ġdef": 1300,
      "Ġcomm": 1301,
      "Ġadd": 1302,
      "Ġthan": 1303,
      "Ġthrough": 1304,
      "Ġgonna": 1305,
      "ender": 1306,
      "Ġdesarrollo": 1307,
      "nment": 1308,
      "Ġconsider": 1309,
      "ts": 1310,
      "Ġbel": 1311,
      "ĠIs": 1312,
      "Ġoper": 1313,
      "ĠCouncil": 1314,
      "Ġfavor": 1315,
      "Ġahora": 1316,
      "arios": 1317,
      "old": 1318,
      "mos": 1319,
      "Ġay": 1320,
      "icial": 1321,
      "Ġem": 1322,
      "Ġter": 1323,
      "Ġsitu": 1324,
      "Ġaplic": 1325,
      "Ġcapaci": 1326,
      "ait": 1327,
      "hor": 1328,
      "Ġsuch": 1329,
      "Buen": 1330,
      "ister": 1331,
      "amiento": 1332,
      "Ġsegu": 1333,
      "icios": 1334,
      "Ġke": 1335,
      "Ġthose": 1336,
      "Ġproble": 1337,
      "ĠEx": 1338,
      "ĠLe": 1339,
      "Ġdidn": 1340,
      "Ġhor": 1341,
      "ĠConsejo": 1342,
      "Le": 1343,
      "Ġmet": 1344,
      "lease": 1345,
      "Ġlittle": 1346,
      "ert": 1347,
      "itÃ©": 1348,
      "Ġwon": 1349,
      "Las": 1350,
      "Ġvida": 1351,
      "Ġfirst": 1352,
      "Ġ8": 1353,
      "ural": 1354,
      "Ġnew": 1355,
      "Ġparticip": 1356,
      "row": 1357,
      "Ġtom": 1358,
      "Ġdr": 1359,
      "arme": 1360,
      "Ġhapp": 1361,
      "Ġinformation": 1362,
      "ĠinformaciÃ³n": 1363,
      "Ġtalk": 1364,
      "ather": 1365,
      "Ġhech": 1366,
      "Ġfu": 1367,
      "unca": 1368,
      "Ġdisc": 1369,
      "Ġca": 1370,
      "ĠPresid": 1371,
      "Ġprinci": 1372,
      "ru": 1373,
      "Ġdocu": 1374,
      "Ġcasa": 1375,
      "Ġwomen": 1376,
      "air": 1377,
      "Ġhombre": 1378,
      "ady": 1379,
      "Ġdevelopment": 1380,
      "Ġsomething": 1381,
      "II": 1382,
      "itor": 1383,
      "ath": 1384,
      "000": 1385,
      "Ġestoy": 1386,
      "orm": 1387,
      "Ġfuer": 1388,
      "Ġrem": 1389,
      "imiento": 1390,
      "ĠMin": 1391,
      "ĠEuro": 1392,
      "ueb": 1393,
      "Ġesa": 1394,
      "Ã³nde": 1395,
      "ministr": 1396,
      "Ġsent": 1397,
      "ĠsÃ©": 1398,
      "IN": 1399,
      "ew": 1400,
      "urr": 1401,
      "oco": 1402,
      "Ġtengo": 1403,
      "lear": 1404,
      "ĠSe": 1405,
      "Ġart": 1406,
      "Ġmom": 1407,
      "ĠIt": 1408,
      "ugar": 1409,
      "Now": 1410,
      "iere": 1411,
      "rÃ¡": 1412,
      "icular": 1413,
      "Ġval": 1414,
      "Ġresult": 1415,
      "cy": 1416,
      "pos": 1417,
      "Ġcal": 1418,
      "empre": 1419,
      "Ġimplement": 1420,
      "Ġpersonas": 1421,
      "tro": 1422,
      "Ġdej": 1423,
      "cid": 1424,
      "Ġhi": 1425,
      "Ġinvest": 1426,
      "Ġer": 1427,
      "red": 1428,
      "Ã³m": 1429,
      "ĠpolÃŃ": 1430,
      "yst": 1431,
      "Ġsoci": 1432,
      "Ġ2012": 1433,
      "ordin": 1434,
      "ĠestÃ¡n": 1435,
      "Ġexper": 1436,
      "ĠhabÃŃa": 1437,
      "Ġcooper": 1438,
      "Ġmean": 1439,
      "ector": 1440,
      "Ġparticular": 1441,
      "Ġmucho": 1442,
      "Ġthen": 1443,
      "Ã©r": 1444,
      "ĠWhat": 1445,
      "ass": 1446,
      "Ġfund": 1447,
      "embre": 1448,
      "ros": 1449,
      "ye": 1450,
      "erg": 1451,
      "Ġlaw": 1452,
      "Ġconst": 1453,
      "10": 1454,
      "Do": 1455,
      "Ġsign": 1456,
      "Ġapoy": 1457,
      "ĠComisiÃ³n": 1458,
      "Ġlong": 1459,
      "Ġmill": 1460,
      "enta": 1461,
      "Ġalgun": 1462,
      "Ġhasta": 1463,
      "Ġreally": 1464,
      "Ġyears": 1465,
      "endo": 1466,
      "elo": 1467,
      "Ġcompr": 1468,
      "ato": 1469,
      "ull": 1470,
      "Ġexam": 1471,
      "Que": 1472,
      "Ya": 1473,
      "Ġbefore": 1474,
      "Ġobs": 1475,
      "Ġafter": 1476,
      "Ġlife": 1477,
      "mission": 1478,
      "To": 1479,
      "den": 1480,
      "iar": 1481,
      "Ġses": 1482,
      "arl": 1483,
      "Ġwr": 1484,
      "Ġbl": 1485,
      "Ġnational": 1486,
      "acionales": 1487,
      "Ġtrabajo": 1488,
      "tim": 1489,
      "Ġdin": 1490,
      "ator": 1491,
      "ola": 1492,
      "ollow": 1493,
      "urn": 1494,
      "Ġcomun": 1495,
      "cess": 1496,
      "eros": 1497,
      "ista": 1498,
      "Ġva": 1499,
      "Ġproy": 1500,
      "cho": 1501,
      "Ġ15": 1502,
      "Ġinternational": 1503,
      "Ġeduc": 1504,
      "ivos": 1505,
      "oney": 1506,
      "ĠseÃ±or": 1507,
      "Ġayud": 1508,
      "body": 1509,
      "Ġcivil": 1510,
      "Ġeven": 1511,
      "Ġsocial": 1512,
      "ibil": 1513,
      "uÃ©s": 1514,
      "Ġspe": 1515,
      "ientes": 1516,
      "ystem": 1517,
      "jet": 1518,
      "Ġkill": 1519,
      "ĠComitÃ©": 1520,
      "Ġpuedo": 1521,
      "12": 1522,
      "com": 1523,
      "Ġmod": 1524,
      "Ġgive": 1525,
      "irl": 1526,
      "ĠFr": 1527,
      "embr": 1528,
      "Ġpolic": 1529,
      "Ãºblica": 1530,
      "Ġprincip": 1531,
      "tica": 1532,
      "Ġmil": 1533,
      "olog": 1534,
      "ference": 1535,
      "Ġhelp": 1536,
      "Ġchildren": 1537,
      ".\"": 1538,
      "All": 1539,
      "ĠtÃº": 1540,
      "Ġmun": 1541,
      "Ġquer": 1542,
      "Ġrepresent": 1543,
      "self": 1544,
      "Don": 1545,
      "iste": 1546,
      "Ġesper": 1547,
      "Ġestaba": 1548,
      "Ġestabl": 1549,
      "ÃŃculo": 1550,
      "ious": 1551,
      "Ġadopt": 1552,
      "ĠâĢ": 1553,
      "Ġprovid": 1554,
      "Ġtak": 1555,
      "Ġlugar": 1556,
      "ecciÃ³n": 1557,
      "ÃŃodo": 1558,
      "ĠniÃ±os": 1559,
      "ĠpaÃŃses": 1560,
      "ublic": 1561,
      "rob": 1562,
      "Ġjun": 1563,
      "tegr": 1564,
      "Ġdesde": 1565,
      "Ġatt": 1566,
      "Ġhecho": 1567,
      "ail": 1568,
      "da": 1569,
      "ĠdÃŃa": 1570,
      "ĠsÃŃ": 1571,
      "ale": 1572,
      "ĠAm": 1573,
      "iciones": 1574,
      "cept": 1575,
      "izaciÃ³n": 1576,
      "ĠHuman": 1577,
      "ner": 1578,
      "ĠTh": 1579,
      "Ġcer": 1580,
      "ata": 1581,
      "ismo": 1582,
      "Ġqued": 1583,
      "Ġella": 1584,
      "iva": 1585,
      "oth": 1586,
      "Ġbetter": 1587,
      "Ġdocument": 1588,
      "Ġ...": 1589,
      "Ġsir": 1590,
      "Ġpens": 1591,
      "Ġantes": 1592,
      "iene": 1593,
      "ĠperÃŃodo": 1594,
      "Ġpublic": 1595,
      "Ġmujeres": 1596,
      "embros": 1597,
      "hip": 1598,
      "miento": 1599,
      "ange": 1600,
      "Ġhace": 1601,
      "iss": 1602,
      "Ġagainst": 1603,
      "Ġcour": 1604,
      "Ġrev": 1605,
      "Ġef": 1606,
      "je": 1607,
      "Ġlleg": 1608,
      "ierno": 1609,
      "uerdo": 1610,
      "vention": 1611,
      "CÃ³mo": 1612,
      "Ġcamb": 1613,
      "cio": 1614,
      "ĠSo": 1615,
      "ĠState": 1616,
      "Ġ.": 1617,
      "Ġthing": 1618,
      "Ġespecial": 1619,
      "ecut": 1620,
      "Ġproced": 1621,
      "Ġask": 1622,
      "ieron": 1623,
      "Quier": 1624,
      "200": 1625,
      "Ġdeber": 1626,
      "Ġej": 1627,
      "ceso": 1628,
      "amento": 1629,
      "Ġcontrib": 1630,
      "jos": 1631,
      "nos": 1632,
      "Ġinf": 1633,
      "ER": 1634,
      "atos": 1635,
      "Ġgeneral": 1636,
      "Ġreci": 1637,
      "epend": 1638,
      "Ġfind": 1639,
      "Ġfinanci": 1640,
      "Ġinforme": 1641,
      "Ġrespons": 1642,
      "eng": 1643,
      "ouse": 1644,
      "Ġ18": 1645,
      "ights": 1646,
      "Ġplace": 1647,
      "ful": 1648,
      "Ġsido": 1649,
      "Ġcam": 1650,
      "Ġfollow": 1651,
      "ĠGover": 1652,
      "izar": 1653,
      "Ġmater": 1654,
      "ĠEurope": 1655,
      "land": 1656,
      "ms": 1657,
      "Ġnum": 1658,
      "Ġsea": 1659,
      "contr": 1660,
      "Ġcountries": 1661,
      "Des": 1662,
      "ever": 1663,
      "Ġsystem": 1664,
      "Ġdep": 1665,
      "Ġhand": 1666,
      "Ġ13": 1667,
      "EstÃ¡": 1668,
      "ves": 1669,
      "ys": 1670,
      "ital": 1671,
      "aban": 1672,
      "Ġstill": 1673,
      "ways": 1674,
      "Let": 1675,
      "xt": 1676,
      "Ġz": 1677,
      "anc": 1678,
      "Ġlove": 1679,
      "ancia": 1680,
      "osotros": 1681,
      "uch": 1682,
      "Ġbar": 1683,
      "Ġgirl": 1684,
      "Ġmedidas": 1685,
      "Bueno": 1686,
      "My": 1687,
      "ik": 1688,
      "Ġbeing": 1689,
      "Ġfriend": 1690,
      "Yes": 1691,
      "Ġotra": 1692,
      "Ġreun": 1693,
      "Ġve": 1694,
      "Ġven": 1695,
      "ween": 1696,
      "oh": 1697,
      "ĠWh": 1698,
      "acias": 1699,
      "abor": 1700,
      "Ġsoy": 1701,
      "Ãºl": 1702,
      "Ġfeel": 1703,
      "Ġquiero": 1704,
      "Ġincluding": 1705,
      "Ar": 1706,
      "Ch": 1707,
      "ying": 1708,
      "Ġau": 1709,
      "Ġestar": 1710,
      "Ġanything": 1711,
      "Ġcosas": 1712,
      "hÃŃ": 1713,
      "Ġmor": 1714,
      "Ġbo": 1715,
      "Ġauthor": 1716,
      "Ġappro": 1717,
      "\".": 1718,
      "ican": 1719,
      "kay": 1720,
      "Ġdet": 1721,
      "Ġmuer": 1722,
      "Ġcual": 1723,
      "Ġuse": 1724,
      "iel": 1725,
      "ena": 1726,
      "Ġput": 1727,
      "Ġpap": 1728,
      "ientos": 1729,
      "Ġbecause": 1730,
      "als": 1731,
      "Ġown": 1732,
      "ĠCo": 1733,
      "enda": 1734,
      "ativas": 1735,
      "NU": 1736,
      "col": 1737,
      "iod": 1738,
      "Ġpoco": 1739,
      "acil": 1740,
      "Ġhumanos": 1741,
      "Ġinvestig": 1742,
      "ĠMe": 1743,
      "Ġsigu": 1744,
      "Ġhaci": 1745,
      "ĠAnd": 1746,
      "ĠEstado": 1747,
      "Re": 1748,
      "Ġotros": 1749,
      "Ġnues": 1750,
      "Ġtodas": 1751,
      "Ġcountry": 1752,
      "Not": 1753,
      "Pued": 1754,
      "Vamos": 1755,
      "Ġsor": 1756,
      "Ġprepar": 1757,
      "Ġbetween": 1758,
      "Ġverdad": 1759,
      "IS": 1760,
      "Para": 1761,
      "ving": 1762,
      "Ġdra": 1763,
      "Ġporque": 1764,
      "ĠWe": 1765,
      "adores": 1766,
      "uss": 1767,
      "ĠestÃ¡s": 1768,
      "Ġshall": 1769,
      "ĠJun": 1770,
      "Ġcomple": 1771,
      "Ġmismo": 1772,
      "reg": 1773,
      "Ġhome": 1774,
      "Ġenc": 1775,
      "ĠPart": 1776,
      "Ġwhy": 1777,
      "Ġprograma": 1778,
      "Ġincre": 1779,
      "Ġtipo": 1780,
      "Ahora": 1781,
      "Ġaway": 1782,
      "ĠsÃ³lo": 1783,
      "Ġlist": 1784,
      "omic": 1785,
      "Ġvoy": 1786,
      "zo": 1787,
      "Ġsist": 1788,
      "arlo": 1789,
      "Ġnight": 1790,
      "Ġintegr": 1791,
      "Ġencontr": 1792,
      "Ġconcer": 1793,
      "Ġuno": 1794,
      "ieve": 1795,
      "Ġ199": 1796,
      "Ġactividades": 1797,
      "13": 1798,
      "ral": 1799,
      "van": 1800,
      "arm": 1801,
      "Ġnoche": 1802,
      "ira": 1803,
      "Ġalways": 1804,
      "Ġtra": 1805,
      "Ġsiempre": 1806,
      "Ġdest": 1807,
      "entro": 1808,
      "Ġend": 1809,
      "Ġsuper": 1810,
      "Ġ14": 1811,
      "guien": 1812,
      "Ġproduct": 1813,
      "bal": 1814,
      "fo": 1815,
      "ĠÃ": 1816,
      "Ġcamp": 1817,
      "stand": 1818,
      "ĠDec": 1819,
      "Ġarr": 1820,
      "Hey": 1821,
      "uesto": 1822,
      "ticle": 1823,
      "Ġdir": 1824,
      "arte": 1825,
      "Ġben": 1826,
      "Ġaround": 1827,
      "ards": 1828,
      "uh": 1829,
      "Ġestr": 1830,
      "aph": 1831,
      "echn": 1832,
      "Ġgran": 1833,
      "Ġprovis": 1834,
      "Ġdebe": 1835,
      "Ġobserv": 1836,
      "org": 1837,
      "Ġthought": 1838,
      "isl": 1839,
      "estiÃ³n": 1840,
      "ected": 1841,
      "istencia": 1842,
      "Ġcele": 1843,
      "reo": 1844,
      "adie": 1845,
      "Ġvuel": 1846,
      "Ġ12": 1847,
      "Ġ17": 1848,
      "Ġdoing": 1849,
      "ĠGrupo": 1850,
      "Ġseguridad": 1851,
      "xim": 1852,
      "Ġfl": 1853,
      "Ġens": 1854,
      "ĠSÃŃ": 1855,
      "Ġsur": 1856,
      "Ġiss": 1857,
      "Ġstat": 1858,
      "Ġpersonal": 1859,
      ");": 1860,
      "mend": 1861,
      "pa": 1862,
      "ened": 1863,
      "Ġsta": 1864,
      "Ġbro": 1865,
      "ters": 1866,
      "ession": 1867,
      "Ġhaber": 1868,
      "ished": 1869,
      "Ġderecho": 1870,
      "Ġemb": 1871,
      "Ġmant": 1872,
      "itut": 1873,
      "Ġold": 1874,
      "Eso": 1875,
      "Is": 1876,
      "ute": 1877,
      "Ġda": 1878,
      "Ġlab": 1879,
      "ÃŃn": 1880,
      "Ġgreat": 1881,
      "imp": 1882,
      "icio": 1883,
      "ctor": 1884,
      "Ġext": 1885,
      "Ġshow": 1886,
      "ucciÃ³n": 1887,
      "Ġsolo": 1888,
      "Ġmayor": 1889,
      "ĠAss": 1890,
      "Ġmundo": 1891,
      "venciÃ³n": 1892,
      "alth": 1893,
      "its": 1894,
      "ĠDes": 1895,
      "Ġ30": 1896,
      "Come": 1897,
      "Ġton": 1898,
      "Ġmoney": 1899,
      "Ġotro": 1900,
      "Ġsex": 1901,
      "Ġdecis": 1902,
      "Ġautor": 1903,
      "ĠRepublic": 1904,
      "Ġapoyo": 1905,
      "uci": 1906,
      "Ġtener": 1907,
      "Ġmost": 1908,
      "ferencia": 1909,
      "Ġut": 1910,
      "aste": 1911,
      "Ġesc": 1912,
      "ĠCommission": 1913,
      "Ġcelebr": 1914,
      "ency": 1915,
      "Ġph": 1916,
      "ano": 1917,
      "ents": 1918,
      "Ġfacil": 1919,
      "Ġprof": 1920,
      "Ġperiod": 1921,
      "Ġgroup": 1922,
      "ks": 1923,
      "Ġtotal": 1924,
      "ĠAfr": 1925,
      "ĠPol": 1926,
      "ements": 1927,
      "ĠdespuÃ©s": 1928,
      "Ġset": 1929,
      "Ġci": 1930,
      "Ġsure": 1931,
      "urther": 1932,
      "ienes": 1933,
      "encias": 1934,
      "Ġ'": 1935,
      "itos": 1936,
      "ibun": 1937,
      "Ġorder": 1938,
      "ĠGovernment": 1939,
      "til": 1940,
      "Ġdich": 1941,
      "Ġpat": 1942,
      "Ġdeleg": 1943,
      "ism": 1944,
      "Ġnat": 1945,
      "unto": 1946,
      "Ġescu": 1947,
      "Ġpriv": 1948,
      "Ġkeep": 1949,
      "Ġdinero": 1950,
      "On": 1951,
      "ua": 1952,
      "Ġthree": 1953,
      "Ġname": 1954,
      "Ġadministr": 1955,
      "Ġsesiones": 1956,
      "--": 1957,
      "Ġdec": 1958,
      "ention": 1959,
      "Ġboy": 1960,
      "Ġning": 1961,
      "ecer": 1962,
      "ĠInd": 1963,
      "Ġarm": 1964,
      "ocup": 1965,
      "Ġsecurity": 1966,
      "Sab": 1967,
      "Yeah": 1968,
      "ĠÃºl": 1969,
      "erman": 1970,
      "vers": 1971,
      "Ġ2011": 1972,
      "ajo": 1973,
      "Ġpueden": 1974,
      "ursos": 1975,
      "Ġmomento": 1976,
      "AT": 1977,
      "ES": 1978,
      "Una": 1979,
      "iat": 1980,
      "Ġagr": 1981,
      "Ġsem": 1982,
      "argo": 1983,
      "ower": 1984,
      "uego": 1985,
      "ĠTH": 1986,
      "11": 1987,
      "ny": 1988,
      "Ġcada": 1989,
      "Ġmand": 1990,
      "quier": 1991,
      "iving": 1992,
      "ĠSh": 1993,
      "top": 1994,
      "graph": 1995,
      "Ġpregun": 1996,
      "Ġmany": 1997,
      "Ġregional": 1998,
      "ĠInternational": 1999,
      "Ġnuevo": 2000,
      "ng": 2001,
      "rod": 2002,
      "ivel": 2003,
      "Ġexpl": 2004,
      "Ġlevel": 2005,
      "Ġhablar": 2006,
      "Ġobjet": 2007,
      "Ġdurante": 2008,
      "ĠÃºltim": 2009,
      "eder": 2010,
      "ete": 2011,
      "Ġestado": 2012,
      "ĠBr": 2013,
      "Ġpreocup": 2014,
      "Ġconsult": 2015,
      "tonces": 2016,
      "For": 2017,
      "Ġpal": 2018,
      "Ġpel": 2019,
      "Ġdecl": 2020,
      "Ġmes": 2021,
      "Ġnunca": 2022,
      "Ġret": 2023,
      "imes": 2024,
      "ĠCar": 2025,
      "Ġmenos": 2026,
      "Ġmeeting": 2027,
      "68": 2028,
      "iado": 2029,
      "aria": 2030,
      "Ġfact": 2031,
      "Estoy": 2032,
      "Ġidea": 2033,
      "30": 2034,
      "itical": 2035,
      "Ġnombre": 2036,
      "Ġellos": 2037,
      "Ġlast": 2038,
      "Ġtrain": 2039,
      "ĠRights": 2040,
      "Ġcaso": 2041,
      "Ex": 2042,
      "Mi": 2043,
      "bo": 2044,
      "lig": 2045,
      "cia": 2046,
      "alu": 2047,
      "ĠGob": 2048,
      "Ġjur": 2049,
      "Ġcontrol": 2050,
      "crimin": 2051,
      "uestro": 2052,
      "Ġcommun": 2053,
      "Tod": 2054,
      "work": 2055,
      "ala": 2056,
      "Ġhouse": 2057,
      "Ġotras": 2058,
      "Ġtold": 2059,
      "Ãºm": 2060,
      "Ġrecon": 2061,
      "embers": 2062,
      "Ġutil": 2063,
      "General": 2064,
      "Su": 2065,
      "led": 2066,
      "ned": 2067,
      "quÃ©": 2068,
      "Ġnosotros": 2069,
      "ety": 2070,
      "udad": 2071,
      "Ġacuerdo": 2072,
      "clus": 2073,
      "ativa": 2074,
      "Ġtanto": 2075,
      "osp": 2076,
      "ane": 2077,
      "ally": 2078,
      "lea": 2079,
      "Ġnothing": 2080,
      "Ġ25": 2081,
      "ĠLo": 2082,
      "Ġentr": 2083,
      "Ġused": 2084,
      "Ġactual": 2085,
      "Ġcare": 2086,
      "Ġunderstand": 2087,
      "ĠGroup": 2088,
      "Ġnumber": 2089,
      "ĠahÃŃ": 2090,
      "Ġmight": 2091,
      "Ġsust": 2092,
      "Ġmeas": 2093,
      "portun": 2094,
      "Ġstart": 2095,
      "Ġparty": 2096,
      "Ġresolution": 2097,
      "ĠresoluciÃ³n": 2098,
      "ON": 2099,
      "uary": 2100,
      "Ġdirect": 2101,
      "Ġles": 2102,
      "atch": 2103,
      "ĠReg": 2104,
      "ĠOff": 2105,
      "Ġplay": 2106,
      "Ġmiembros": 2107,
      "Ġrealiz": 2108,
      "crib": 2109,
      "ĠRepÃºblica": 2110,
      "Ġproyecto": 2111,
      "19": 2112,
      "ah": 2113,
      "las": 2114,
      "Ġpon": 2115,
      "ĠpÃ¡r": 2116,
      "Ġgente": 2117,
      "lobal": 2118,
      "ĠartÃŃculo": 2119,
      "tin": 2120,
      "vir": 2121,
      "ĠdÃ³": 2122,
      "Ġgar": 2123,
      "Ġviv": 2124,
      "Ġdisp": 2125,
      "Ġgrand": 2126,
      "Ġcase": 2127,
      "Ġcreo": 2128,
      "ger": 2129,
      "ĠdÃŃas": 2130,
      "cimiento": 2131,
      "Ġjo": 2132,
      "Ġactivities": 2133,
      "ĠOrganiz": 2134,
      "OU": 2135,
      "men": 2136,
      "Ġ[": 2137,
      "Ġthings": 2138,
      "ality": 2139,
      "ela": 2140,
      "Ġparece": 2141,
      "terior": 2142,
      "ectos": 2143,
      "Ġworld": 2144,
      "Ġcoordin": 2145,
      "Ġtienes": 2146,
      "ĠGobierno": 2147,
      "ĠdÃ³lar": 2148,
      "15": 2149,
      "69": 2150,
      "Just": 2151,
      "fici": 2152,
      "Ġcost": 2153,
      "osa": 2154,
      "igr": 2155,
      "Ġforma": 2156,
      "Ġjud": 2157,
      "Ġstand": 2158,
      "ĠConvention": 2159,
      "Ġindic": 2160,
      "embly": 2161,
      "Ġassist": 2162,
      "Ġconflic": 2163,
      "Ġhoras": 2164,
      "Ġdar": 2165,
      "ased": 2166,
      "ables": 2167,
      "emÃ¡s": 2168,
      "ants": 2169,
      "Ġminut": 2170,
      "Ġident": 2171,
      "Ġtres": 2172,
      "Ġpadre": 2173,
      "Ġnacional": 2174,
      "Ġoblig": 2175,
      "Ġrecommend": 2176,
      "Ġfuera": 2177,
      "sp": 2178,
      "Ġsc": 2179,
      "Ġhigh": 2180,
      "eck": 2181,
      "Ġalguien": 2182,
      "cep": 2183,
      "ired": 2184,
      "Ġdijo": 2185,
      "Ġservicios": 2186,
      "tas": 2187,
      "una": 2188,
      "icia": 2189,
      "ĠOh": 2190,
      "Ġsince": 2191,
      "IC": 2192,
      "Ġtend": 2193,
      "erc": 2194,
      "Ġwait": 2195,
      "Ġnadie": 2196,
      "iver": 2197,
      "cha": 2198,
      "Ġ16": 2199,
      "agement": 2200,
      "Entonces": 2201,
      "Ġlegisl": 2202,
      "Ġ$": 2203,
      "ĠThat": 2204,
      "ĠDerech": 2205,
      "Ã±a": 2206,
      "Tengo": 2207,
      "ĠdÃ³lares": 2208,
      "Ġtard": 2209,
      "Ġsm": 2210,
      "Ġsame": 2211,
      "Ġnivel": 2212,
      "ÃŃd": 2213,
      "Ġlocal": 2214,
      "icit": 2215,
      "ective": 2216,
      "istas": 2217,
      "Ġstay": 2218,
      "Ġregard": 2219,
      "Ġprovided": 2220,
      "Ġig": 2221,
      "Ġplease": 2222,
      "stitu": 2223,
      "Ġvar": 2224,
      "Ġpermit": 2225,
      "Ġleave": 2226,
      "Ġamb": 2227,
      "Ġmanera": 2228,
      "ount": 2229,
      "Gr": 2230,
      "uild": 2231,
      "Ġfal": 2232,
      "Ã¡l": 2233,
      "Ġley": 2234,
      "Ġcuenta": 2235,
      "aje": 2236,
      "Ġdonde": 2237,
      "irec": 2238,
      "Sh": 2239,
      "UN": 2240,
      "gin": 2241,
      "eno": 2242,
      "Ġbre": 2243,
      "Ġelec": 2244,
      "ĠSeg": 2245,
      "Ġestable": 2246,
      "ierto": 2247,
      "Ġwithout": 2248,
      "anda": 2249,
      "ĠpodrÃŃa": 2250,
      "ĠaplicaciÃ³n": 2251,
      "Ġtechn": 2252,
      "iness": 2253,
      "Ġste": 2254,
      "Ġsession": 2255,
      "ison": 2256,
      "rop": 2257,
      "ived": 2258,
      "ĠAct": 2259,
      "ized": 2260,
      "Ġkind": 2261,
      "uclear": 2262,
      "Ġimplementation": 2263,
      "Ġeres": 2264,
      "Ġrecib": 2265,
      "::": 2266,
      "Mr": 2267,
      "ax": 2268,
      "Ġdom": 2269,
      "Ġnor": 2270,
      "Ġquiere": 2271,
      "Ġenough": 2272,
      "Ġgover": 2273,
      "aking": 2274,
      "Ġsabes": 2275,
      "Ġfamily": 2276,
      "ĠSecretary": 2277,
      "Ġaddress": 2278,
      "Ġciudad": 2279,
      "SÃ³lo": 2280,
      "lan": 2281,
      "mp": 2282,
      "Ġsiento": 2283,
      "Ġmembers": 2284,
      "ÃŃamos": 2285,
      "Ġhear": 2286,
      "Ġinstitu": 2287,
      "Ġinternacional": 2288,
      "ticas": 2289,
      "Ġdeclar": 2290,
      "arÃ¡n": 2291,
      "ancial": 2292,
      "ently": 2293,
      "Ġfig": 2294,
      "Ġblo": 2295,
      "Ġanother": 2296,
      "ama": 2297,
      "Ġprior": 2298,
      "Ġpropor": 2299,
      "iminal": 2300,
      "chool": 2301,
      "ĠAssembly": 2302,
      "ness": 2303,
      "Ġur": 2304,
      "Ġspecial": 2305,
      "oss": 2306,
      "Ġquest": 2307,
      "ives": 2308,
      "Ġcomer": 2309,
      "Ġraz": 2310,
      "Ġchar": 2311,
      "uesta": 2312,
      "ĠrelaciÃ³n": 2313,
      "ativo": 2314,
      "Look": 2315,
      "ID": 2316,
      "May": 2317,
      "gas": 2318,
      "Ãī": 2319,
      "ĠQu": 2320,
      "ona": 2321,
      "Ġlim": 2322,
      "ĠCor": 2323,
      "Ġprog": 2324,
      "Ġprocess": 2325,
      "ĠDios": 2326,
      "When": 2327,
      "Ġpolice": 2328,
      "Ġmedi": 2329,
      "Ġindepend": 2330,
      "Ġbuena": 2331,
      "ĠInternacional": 2332,
      "Ġeffort": 2333,
      "Hay": 2334,
      "ex": 2335,
      "Ġpen": 2336,
      "Ġpay": 2337,
      "Ġhour": 2338,
      "Ġwar": 2339,
      "Ġfound": 2340,
      "Then": 2341,
      "Ġcomb": 2342,
      "Ġ11": 2343,
      "Ġinteres": 2344,
      "ĠSecretario": 2345,
      "zas": 2346,
      "ĠGod": 2347,
      "Ġneg": 2348,
      "Ġfinal": 2349,
      "amblea": 2350,
      "Como": 2351,
      "Ãºmero": 2352,
      "25": 2353,
      "Ġpag": 2354,
      "Ã¡m": 2355,
      "ĠMay": 2356,
      "izo": 2357,
      "Ġleft": 2358,
      "ĠConference": 2359,
      "Ġherman": 2360,
      "Ġprovide": 2361,
      "Ġposs": 2362,
      "Ġaccess": 2363,
      "Ġfuncion": 2364,
      "Ġterror": 2365,
      "Bien": 2366,
      "OR": 2367,
      "Ġesos": 2368,
      "Ġexist": 2369,
      "Ġhead": 2370,
      "Ġagenda": 2371,
      "Ġsabe": 2372,
      "Ġservices": 2373,
      "AR": 2374,
      "Rec": 2375,
      "cent": 2376,
      "iet": 2377,
      "Ġcum": 2378,
      "Ġclar": 2379,
      "aremos": 2380,
      "Ġfo": 2381,
      "Ġfut": 2382,
      "Ġesas": 2383,
      "Ġtrav": 2384,
      "segu": 2385,
      "ources": 2386,
      "Cuando": 2387,
      "aÃ±ana": 2388,
      "Ġsit": 2389,
      "ades": 2390,
      "Ġboth": 2391,
      "iba": 2392,
      "Ġtienen": 2393,
      "Ġinclus": 2394,
      "Ġmonth": 2395,
      "Ġbelieve": 2396,
      "OM": 2397,
      "oz": 2398,
      "ĠCr": 2399,
      "Ġrun": 2400,
      "Where": 2401,
      "ĠserÃ¡": 2402,
      "Ġrecursos": 2403,
      "ĠAsamblea": 2404,
      "Ġvisto": 2405,
      "AsÃŃ": 2406,
      "Ġwrong": 2407,
      "Sin": 2408,
      "ont": 2409,
      "ines": 2410,
      "ĠcÃ³mo": 2411,
      "Ġmadre": 2412,
      "Ġbig": 2413,
      "ize": 2414,
      "Esto": 2415,
      "Ġrespecto": 2416,
      "âĢĿ": 2417,
      "Ġmeasures": 2418,
      "po": 2419,
      "oria": 2420,
      "ivid": 2421,
      "ĠSup": 2422,
      "ĠHow": 2423,
      "ief": 2424,
      "Ġ2015": 2425,
      "Ġtoda": 2426,
      "ĠProgram": 2427,
      "Ġstrateg": 2428,
      "ibunal": 2429,
      "viron": 2430,
      "wh": 2431,
      "Ġfurther": 2432,
      "untos": 2433,
      "ecurity": 2434,
      "imos": 2435,
      "Ġasistencia": 2436,
      "ĠallÃŃ": 2437,
      "Ġpeace": 2438,
      "Ġlegal": 2439,
      "Ġcaus": 2440,
      "Ġcourse": 2441,
      "Ġreview": 2442,
      "Ġsorry": 2443,
      "Ġsistema": 2444,
      "Ġbenef": 2445,
      "AN": 2446,
      "Ġtem": 2447,
      "Ġdist": 2448,
      "Ġpaz": 2449,
      "Ġdeter": 2450,
      "Ġmot": 2451,
      "Ġ26": 2452,
      "Ġases": 2453,
      "Ġwhile": 2454,
      "raz": 2455,
      "Ġeverything": 2456,
      "Ġevalu": 2457,
      "Ġfollowing": 2458,
      "Ġgarant": 2459,
      "inar": 2460,
      "Ġschool": 2461,
      "ecu": 2462,
      "Ġelse": 2463,
      "Ã©c": 2464,
      "ird": 2465,
      "ĠPar": 2466,
      "Ġestud": 2467,
      "Ġrest": 2468,
      "Ġ2010": 2469,
      "Ġaprob": 2470,
      "Ġdiscrimin": 2471,
      "Ġrespect": 2472,
      "Ġdifer": 2473,
      "af": 2474,
      "gen": 2475,
      "Ġdici": 2476,
      "Ġmir": 2477,
      "reed": 2478,
      "Ġhist": 2479,
      "Ġyoung": 2480,
      "ock": 2481,
      "Esta": 2482,
      "ĠtenÃŃa": 2483,
      "Ġcosa": 2484,
      "Ġcapacidad": 2485,
      "Ġcomunic": 2486,
      "Ġdicho": 2487,
      "St": 2488,
      "Ġet": 2489,
      "Ġtel": 2490,
      "Ġdig": 2491,
      "outh": 2492,
      "Ġprob": 2493,
      "ĠEd": 2494,
      "loy": 2495,
      "ierra": 2496,
      "Ġhealth": 2497,
      "ope": 2498,
      "ĠFor": 2499,
      "Ġcasos": 2500,
      "Ġwouldn": 2501,
      "porte": 2502,
      "ombres": 2503,
      "Ġaument": 2504,
      "ĠpÃ¡rra": 2505,
      "Ac": 2506,
      "Are": 2507,
      "sh": 2508,
      "Ġpes": 2509,
      "oma": 2510,
      "Ġrece": 2511,
      "iven": 2512,
      "Ġproject": 2513,
      "Ġaccord": 2514,
      "Pro": 2515,
      "gl": 2516,
      "lv": 2517,
      "tico": 2518,
      "âĻ": 2519,
      "Ġdead": 2520,
      "ĠmaÃ±ana": 2521,
      "Ġperd": 2522,
      "echa": 2523,
      "Ġcompet": 2524,
      "Ġfinancial": 2525,
      "uction": 2526,
      "Ġdoesn": 2527,
      "Quiero": 2528,
      "ĠDerechos": 2529,
      "vironment": 2530,
      "Ha": 2531,
      "day": 2532,
      "ww": 2533,
      "Ġpueb": 2534,
      "Ġhub": 2535,
      "Ġconform": 2536,
      "Ġvict": 2537,
      "ĠAc": 2538,
      "Ġ21": 2539,
      "Ġpract": 2540,
      "Ġkid": 2541,
      "ĠOc": 2542,
      "ĠJul": 2543,
      "Ġnext": 2544,
      "Ġdone": 2545,
      "eza": 2546,
      "Ġdiffer": 2547,
      "ĠDevelop": 2548,
      "ĠSocial": 2549,
      "Ġair": 2550,
      "Ġden": 2551,
      "Ġdiv": 2552,
      "anos": 2553,
      "elf": 2554,
      "ello": 2555,
      "Ã¡ct": 2556,
      "ĠDr": 2557,
      "very": 2558,
      "Ġpersona": 2559,
      "undial": 2560,
      "Ġinstitut": 2561,
      "Ġinvol": 2562,
      "Ġquieres": 2563,
      "ĠsituaciÃ³n": 2564,
      "Ġhijo": 2565,
      "EN": 2566,
      "Pod": 2567,
      "ix": 2568,
      "Ġcir": 2569,
      "ĠmÃ©": 2570,
      "Ġnuestro": 2571,
      "Ġant": 2572,
      "ÃŃst": 2573,
      "Ã©j": 2574,
      "Ġvamos": 2575,
      "Ġ24": 2576,
      "ĠEcon": 2577,
      "Who": 2578,
      "Ġpues": 2579,
      "Ġcases": 2580,
      "Ġinclu": 2581,
      "Ġmind": 2582,
      "Ġwoman": 2583,
      "Ġcontinu": 2584,
      "Ġrecomend": 2585,
      "ield": 2586,
      "ĠÃģ": 2587,
      "Ġefforts": 2588,
      "ya": 2589,
      "Ġfel": 2590,
      "ĠDo": 2591,
      "ified": 2592,
      "osten": 2593,
      "Ġmiss": 2594,
      "ificaciÃ³n": 2595,
      "Ġroom": 2596,
      "Ġsecond": 2597,
      "ĠMinister": 2598,
      "ĠpolicÃŃa": 2599,
      "ĠâĢľ": 2600,
      "Ġensure": 2601,
      "AD": 2602,
      "Ġlot": 2603,
      "Ġmur": 2604,
      "Ġmain": 2605,
      "atic": 2606,
      "trib": 2607,
      "Ġpresente": 2608,
      "Ġguy": 2609,
      "Ġworking": 2610,
      "Ġimportante": 2611,
      "ability": 2612,
      "ohn": 2613,
      "Ġlabor": 2614,
      "âĻª": 2615,
      "14": 2616,
      "uz": 2617,
      "ĠZ": 2618,
      "Ġmother": 2619,
      "alo": 2620,
      "Ġnuclear": 2621,
      "olo": 2622,
      "oles": 2623,
      "Ġisn": 2624,
      "Ġabr": 2625,
      "Ġstud": 2626,
      "QuiÃ©n": 2627,
      "Ġhabl": 2628,
      "Ġ2009": 2629,
      "Ġopen": 2630,
      "Ġproporcion": 2631,
      "can": 2632,
      "ges": 2633,
      "taciÃ³n": 2634,
      "Ġtest": 2635,
      "Ġcame": 2636,
      "Ġeach": 2637,
      "tocol": 2638,
      "ĠTo": 2639,
      "Ġinterest": 2640,
      "Ġpartes": 2641,
      "Ġpuedes": 2642,
      "mitted": 2643,
      "soci": 2644,
      "Ġwanted": 2645,
      "Ġduring": 2646,
      "Ġdays": 2647,
      "ĠJune": 2648,
      "rup": 2649,
      "ried": 2650,
      "Ġ?": 2651,
      "Ġtemp": 2652,
      "ense": 2653,
      "Ġpop": 2654,
      "Ġbest": 2655,
      "ley": 2656,
      "Ġconoc": 2657,
      "ĠServ": 2658,
      "acto": 2659,
      "ustr": 2660,
      "lla": 2661,
      "Ġbueno": 2662,
      "Ġigual": 2663,
      "Ġelectr": 2664,
      "DÃ³nde": 2665,
      "Has": 2666,
      "cel": 2667,
      "mar": 2668,
      "oe": 2669,
      "ĠquiÃ©n": 2670,
      "Ġgan": 2671,
      "ima": 2672,
      "Ġear": 2673,
      "Ġextra": 2674,
      "Ġorden": 2675,
      "ĠFeder": 2676,
      "ĠYes": 2677,
      "Ġpersons": 2678,
      "AS": 2679,
      "Ġped": 2680,
      "Ġpost": 2681,
      "ĠpÃºblic": 2682,
      "anto": 2683,
      "alf": 2684,
      "Ġbad": 2685,
      "igos": 2686,
      "ulation": 2687,
      "Ġestos": 2688,
      "Your": 2689,
      "Ġamigo": 2690,
      "Ġindivid": 2691,
      "Ġassistance": 2692,
      "24": 2693,
      "Tr": 2694,
      "ij": 2695,
      "Ġ0": 2696,
      "ĠaÃ±o": 2697,
      "Ġsac": 2698,
      "Ġhur": 2699,
      "Ġbor": 2700,
      "ims": 2701,
      "igu": 2702,
      "ets": 2703,
      "Ġcoming": 2704,
      "ĠprÃ¡ct": 2705,
      "Ġlead": 2706,
      "Ġfamilia": 2707,
      "ĠPresidente": 2708,
      "Ġtaken": 2709,
      "alk": 2710,
      "Ġante": 2711,
      "ÃŃf": 2712,
      "Ġconv": 2713,
      "ĠAg": 2714,
      "Ġparagraph": 2715,
      "Ġextr": 2716,
      "Ġpeque": 2717,
      "Ġsalud": 2718,
      "Ġheld": 2719,
      "Ġrequest": 2720,
      "Ġgusta": 2721,
      "ĠPresident": 2722,
      "At": 2723,
      "Fr": 2724,
      "One": 2725,
      "TambiÃ©n": 2726,
      "Ġ!": 2727,
      "Ġdice": 2728,
      "Ġcult": 2729,
      "osed": 2730,
      "ash": 2731,
      "omal": 2732,
      "ics": 2733,
      "Ġtook": 2734,
      "Ġloc": 2735,
      "Ġrat": 2736,
      "Ã±or": 2737,
      "Ġamor": 2738,
      "atives": 2739,
      "Ġpodr": 2740,
      "Ġsaber": 2741,
      "abilidad": 2742,
      "ĠeconÃ³m": 2743,
      "ĠcooperaciÃ³n": 2744,
      "Ġfundament": 2745,
      "ĠSeguridad": 2746,
      "17": 2747,
      "mun": 2748,
      "onces": 2749,
      "Ġhombres": 2750,
      "Ġfather": 2751,
      "ÃŃr": 2752,
      "amÃ¡": 2753,
      "Ġunos": 2754,
      "ĠMan": 2755,
      "rael": 2756,
      "Ãºs": 2757,
      "Ġamong": 2758,
      "ĠChr": 2759,
      "Ġhumanitar": 2760,
      "Ġprogramme": 2761,
      "Ġimportant": 2762,
      "gether": 2763,
      "vil": 2764,
      "ready": 2765,
      "Ġfull": 2766,
      "Ġbase": 2767,
      "Ġsufici": 2768,
      "bern": 2769,
      "Este": 2770,
      "Ġimpro": 2771,
      "Ġtenemos": 2772,
      "Ġmatter": 2773,
      "Ġinstru": 2774,
      "ĠprotecciÃ³n": 2775,
      "Ġdraft": 2776,
      "ĠDevelopment": 2777,
      "AC": 2778,
      "Did": 2779,
      "Per": 2780,
      "of": 2781,
      "Ġaw": 2782,
      "Ġaff": 2783,
      "Ġpob": 2784,
      "Ġcurr": 2785,
      "ential": 2786,
      "Ġnorm": 2787,
      "ĠnÃºmero": 2788,
      "Ã³r": 2789,
      "ĠAb": 2790,
      "ĠPa": 2791,
      "Ġestas": 2792,
      "ĠDep": 2793,
      "estiones": 2794,
      "ization": 2795,
      "ĠatenciÃ³n": 2796,
      "Ġrecord": 2797,
      "Ġword": 2798,
      "Ġpasa": 2799,
      "Ġintent": 2800,
      "Ġcalled": 2801,
      "Ġeconomic": 2802,
      "Ġcooperation": 2803,
      "ength": 2804,
      "Soy": 2805,
      "come": 2806,
      "ald": 2807,
      "itas": 2808,
      "ques": 2809,
      "Ġgra": 2810,
      "Ġvas": 2811,
      "ĠAt": 2812,
      "Ġarmas": 2813,
      "EstÃ¡s": 2814,
      "ĠYork": 2815,
      "Ġocup": 2816,
      "Ġvolver": 2817,
      "Ġremain": 2818,
      "Ġtarde": 2819,
      "Creo": 2820,
      "TÃº": 2821,
      "Âº": 2822,
      "Ġhizo": 2823,
      "isis": 2824,
      "Ġyet": 2825,
      "omen": 2826,
      "Ġgrow": 2827,
      "irt": 2828,
      "ĠMi": 2829,
      "ĠLos": 2830,
      "ĠNor": 2831,
      "Ġpreci": 2832,
      "ĠConvenciÃ³n": 2833,
      "Ġparties": 2834,
      "Ġregion": 2835,
      "ativos": 2836,
      "Ġinternacionales": 2837,
      "Ġfew": 2838,
      "Ġcualquier": 2839,
      "ĠDecember": 2840,
      "ĠOffice": 2841,
      "uilding": 2842,
      "Ġdetermin": 2843,
      "ĠpÃ¡rrafo": 2844,
      "Ġdifferent": 2845,
      "Ah": 2846,
      "ĠÃºn": 2847,
      "Ġlar": 2848,
      "Ġcur": 2849,
      "Ġmas": 2850,
      "reci": 2851,
      "Ġhon": 2852,
      "Ġconm": 2853,
      "ste": 2854,
      "str": 2855,
      "sted": 2856,
      "ĠSpecial": 2857,
      "ĠSecurity": 2858,
      "Ġseen": 2859,
      "illa": 2860,
      "Ġchange": 2861,
      "Ġpolitical": 2862,
      "Ġsaw": 2863,
      "Ġapplic": 2864,
      "Ġbusiness": 2865,
      "Can": 2866,
      "tion": 2867,
      "Ġtreat": 2868,
      "ene": 2869,
      "ĠdÃ³nde": 2870,
      "almente": 2871,
      "itaciÃ³n": 2872,
      "itions": 2873,
      "ised": 2874,
      "edad": 2875,
      "Ġinici": 2876,
      "Ġtogether": 2877,
      "Ġgener": 2878,
      "Ġveces": 2879,
      "eta": 2880,
      "aya": 2881,
      "Ġitem": 2882,
      "ĠRo": 2883,
      "Ġpromo": 2884,
      "Ġprimera": 2885,
      "AdemÃ¡s": 2886,
      "16": 2887,
      "23": 2888,
      "EC": 2889,
      "Hab": 2890,
      "ban": 2891,
      "ners": 2892,
      "uales": 2893,
      "Ġtus": 2894,
      "Ġsw": 2895,
      "Ġsector": 2896,
      "Ġreas": 2897,
      "Ġconoci": 2898,
      "irÃ¡": 2899,
      "aces": 2900,
      "ocr": 2901,
      "Ġentonces": 2902,
      "Ġrecog": 2903,
      "ugh": 2904,
      "Ġprogramas": 2905,
      "Ġviolence": 2906,
      "Ġprimer": 2907,
      "Ġmillion": 2908,
      "Ġnuestra": 2909,
      "-Â¿": 2910,
      "18": 2911,
      "Get": 2912,
      "Pr": 2913,
      "ek": 2914,
      "uce": 2915,
      "Ġdatos": 2916,
      "anza": 2917,
      "Ġfil": 2918,
      "Ġenerg": 2919,
      "Ġalready": 2920,
      "Ġbeh": 2921,
      "Ġlogr": 2922,
      "ĠDirect": 2923,
      "ump": 2924,
      "Ġheard": 2925,
      "Ġdispos": 2926,
      "Ġempres": 2927,
      "Ġcoll": 2928,
      "ficina": 2929,
      "airs": 2930,
      "Ġeducation": 2931,
      "Ġnatural": 2932,
      "erÃŃa": 2933,
      "onas": 2934,
      "ream": 2935,
      "Ġwater": 2936,
      "leep": 2937,
      "irm": 2938,
      "ended": 2939,
      "Deb": 2940,
      "2013": 2941,
      "Ġmillones": 2942,
      "Ġkilled": 2943,
      "Ġtraining": 2944,
      "Tu": 2945,
      "sw": 2946,
      "Ġhot": 2947,
      "Ġhora": 2948,
      "Ġhold": 2949,
      "iment": 2950,
      "ĠCol": 2951,
      "ĠSomal": 2952,
      "ĠPe": 2953,
      "Ġris": 2954,
      "ĠDem": 2955,
      "Ġwithin": 2956,
      "ĠBar": 2957,
      "ĠFin": 2958,
      "Ġacceso": 2959,
      "Ġimag": 2960,
      "Ġyourself": 2961,
      "Ġdecid": 2962,
      "Ġsolicit": 2963,
      "2014": 2964,
      "Ġsituation": 2965,
      "Todo": 2966,
      "Ġjunio": 2967,
      "mes": 2968,
      "Ġatr": 2969,
      "Ġaud": 2970,
      "ined": 2971,
      "Ġcul": 2972,
      "orta": 2973,
      "Ġmag": 2974,
      "Ġokay": 2975,
      "Ġencar": 2976,
      "Ġread": 2977,
      "Ã©g": 2978,
      "Ġview": 2979,
      "ĠAp": 2980,
      "ches": 2981,
      "Ġresources": 2982,
      "ella": 2983,
      "Ġarres": 2984,
      "Ġarreg": 2985,
      "peci": 2986,
      "ĠJust": 2987,
      "ept": 2988,
      "ĠYeah": 2989,
      "Ġ31": 2990,
      "Ġpasado": 2991,
      "Ġpolicy": 2992,
      "Ġmediante": 2993,
      "Ġcumpl": 2994,
      "Ġdiciembre": 2995,
      "ED": 2996,
      "Eres": 2997,
      "aut": 2998,
      "Ġcop": 2999,
      "Ġclear": 3000,
      "cido": 3001,
      "Ġnec": 3002,
      "Ġguer": 3003,
      "Ã©is": 3004,
      "Ġ22": 3005,
      "ĠGu": 3006,
      "ĠBut": 3007,
      "Ġdoctor": 3008,
      "Ġplaz": 3009,
      "Ġobst": 3010,
      "Ġgetting": 3011,
      "ification": 3012,
      "Ġposible": 3013,
      "vail": 3014,
      "Ġprotection": 3015,
      "Ġhacia": 3016,
      "ĠDesarrollo": 3017,
      "Ġsustain": 3018,
      "Ã©cn": 3019,
      "27": 3020,
      "ha": 3021,
      "hib": 3022,
      "Ġpien": 3023,
      "arle": 3024,
      "Ġma": 3025,
      "omp": 3026,
      "Ġrelev": 3027,
      "Ã¡p": 3028,
      "ably": 3029,
      "Ġalone": 3030,
      "Ġdecision": 3031,
      "ticos": 3032,
      "Ġemple": 3033,
      "ING": 3034,
      "Ġspeci": 3035,
      "ĠreuniÃ³n": 3036,
      "iot": 3037,
      "sa": 3038,
      "yr": 3039,
      "Ġos": 3040,
      "Ġoportun": 3041,
      "unt": 3042,
      "Ġglobal": 3043,
      "emente": 3044,
      "uring": 3045,
      "Ġproceso": 3046,
      "Ġtry": 3047,
      "upos": 3048,
      "Ġframe": 3049,
      "Ġagua": 3050,
      "Ġpoder": 3051,
      "Ġ2008": 3052,
      "anks": 3053,
      "ĠTribunal": 3054,
      "Ġviolencia": 3055,
      "Ġtalking": 3056,
      "ĠpolÃŃtica": 3057,
      "ibilidad": 3058,
      "Ġpalab": 3059,
      "Or": 3060,
      "Some": 3061,
      "dos": 3062,
      "ee": 3063,
      "eo": 3064,
      "pre": 3065,
      "zar": 3066,
      "Ġ#": 3067,
      "Ġ,": 3068,
      "Ġdivers": 3069,
      "Ġlive": 3070,
      "any": 3071,
      "ances": 3072,
      "cito": 3073,
      "Ġnon": 3074,
      "Ġencu": 3075,
      "Ã¡nd": 3076,
      "ĠvÃŃ": 3077,
      "Ġvie": 3078,
      "ĠSra": 3079,
      "ĠDon": 3080,
      "ibles": 3081,
      "ĠBo": 3082,
      "Ġorgan": 3083,
      "Ġcuestiones": 3084,
      "Ġpoint": 3085,
      "Ġexperien": 3086,
      "Ġstaff": 3087,
      "ĠTHE": 3088,
      "Ġconmigo": 3089,
      "26": 3090,
      "Good": 3091,
      "ler": 3092,
      "ule": 3093,
      "uff": 3094,
      "ĠX": 3095,
      "Ġi": 3096,
      "Ġdentro": 3097,
      "inco": 3098,
      "Ġsat": 3099,
      "Ġinit": 3100,
      "ily": 3101,
      "imo": 3102,
      "ched": 3103,
      "apaci": 3104,
      "Ã±as": 3105,
      "Ġgrupos": 3106,
      "Ġremember": 3107,
      "ĠEuropean": 3108,
      "Sabes": 3109,
      "Ġindividual": 3110,
      "Ġnecess": 3111,
      "AM": 3112,
      "IT": 3113,
      "Son": 3114,
      "bit": 3115,
      "gg": 3116,
      "gÃºn": 3117,
      "ium": 3118,
      "my": 3119,
      "yo": 3120,
      "yes": 3121,
      "ences": 3122,
      "inas": 3123,
      "Ġsimp": 3124,
      "Ġsosten": 3125,
      "Ġyes": 3126,
      "Ġwin": 3127,
      "Ġesf": 3128,
      "ĠPerman": 3129,
      "udget": 3130,
      "ĠOficina": 3131,
      "Ġareas": 3132,
      "Ġnego": 3133,
      "ajor": 3134,
      "Ġampl": 3135,
      "Ġexpres": 3136,
      "ĠProtocol": 3137,
      "Ġdirig": 3138,
      "Ġembargo": 3139,
      "50": 3140,
      "LL": 3141,
      "bs": 3142,
      "Ġdro": 3143,
      "Ġdam": 3144,
      "Ġdirec": 3145,
      "itional": 3146,
      "quil": 3147,
      "Ġfour": 3148,
      "Ġgl": 3149,
      "Ġelabor": 3150,
      "ĠSan": 3151,
      "Ġsepar": 3152,
      "ĠRes": 3153,
      "ĠLib": 3154,
      "avÃŃa": 3155,
      "Ġmedio": 3156,
      "Ġsold": 3157,
      "Ġwhole": 3158,
      "Ġtermin": 3159,
      "Ġhappened": 3160,
      "ĠpolÃŃticas": 3161,
      "Ġexamen": 3162,
      "Ġgroups": 3163,
      "Hola": 3164,
      "Nunca": 3165,
      "Sup": 3166,
      "Tienes": 3167,
      "Ġdie": 3168,
      "Ġland": 3169,
      "Ġdemas": 3170,
      "Ã³g": 3171,
      "resp": 3172,
      "Ġhaven": 3173,
      "thers": 3174,
      "Ġcompl": 3175,
      "Ġintrod": 3176,
      "Ġequip": 3177,
      "Any": 3178,
      "ibility": 3179,
      "Ġissues": 3180,
      "Ġhours": 3181,
      "dic": 3182,
      "uv": 3183,
      "Ġdata": 3184,
      "Ġstop": 3185,
      "atro": 3186,
      "Ġhosp": 3187,
      "Ġolv": 3188,
      "Ġwish": 3189,
      "Ġfar": 3190,
      "Ġbit": 3191,
      "Ġnice": 3192,
      "Ġquien": 3193,
      "Ġello": 3194,
      "Ġunivers": 3195,
      "Ġuntil": 3196,
      "ĠAll": 3197,
      "ude": 3198,
      "Ġgracias": 3199,
      "ĠhabÃŃan": 3200,
      "akes": 3201,
      "Ġevid": 3202,
      "Ġejemp": 3203,
      "Ġfalta": 3204,
      "ĠJuly": 3205,
      "Here": 3206,
      "OP": 3207,
      "iate": 3208,
      "ĠtÃ©cn": 3209,
      "Ġfive": 3210,
      "Ġenvironment": 3211,
      "Ġconte": 3212,
      "Ġonce": 3213,
      "Ġestamos": 3214,
      "Ġ23": 3215,
      "icion": 3216,
      "Ġpret": 3217,
      "Ġmanagement": 3218,
      "Ġmarco": 3219,
      "Ġcorre": 3220,
      "Ġconduct": 3221,
      "Ġlooking": 3222,
      "Ġcontinue": 3223,
      "ancing": 3224,
      "Ġninguna": 3225,
      "ĠrazÃ³n": 3226,
      "AquÃŃ": 3227,
      "Ven": 3228,
      "gos": 3229,
      "ique": 3230,
      "less": 3231,
      "Ġtar": 3232,
      "Ġtema": 3233,
      "Ġturn": 3234,
      "ening": 3235,
      "ondo": 3236,
      "anna": 3237,
      "Ġmult": 3238,
      "Ġann": 3239,
      "idado": 3240,
      "ether": 3241,
      "ĠCour": 3242,
      "Ġbeaut": 3243,
      "Ġasoci": 3244,
      "Ġperf": 3245,
      "Ġtrying": 3246,
      "ientras": 3247,
      "Ġabs": 3248,
      "oca": 3249,
      "ĠYo": 3250,
      "âĢĻ": 3251,
      "nex": 3252,
      "efe": 3253,
      "tained": 3254,
      "ĠLaw": 3255,
      "Ġseguir": 3256,
      "ĠLey": 3257,
      "Ġwonder": 3258,
      "Ġalgunos": 3259,
      "Ġhaciendo": 3260,
      "Go": 3261,
      "by": 3262,
      "mb": 3263,
      "pose": 3264,
      "rÃ©": 3265,
      "ĠaÃºn": 3266,
      "Ġavail": 3267,
      "erta": 3268,
      "arÃ¡s": 3269,
      "Ġhoy": 3270,
      "Ġwent": 3271,
      "Ġnacionales": 3272,
      "unque": 3273,
      "eme": 3274,
      "Ġhaving": 3275,
      "ĠGe": 3276,
      "Ġpron": 3277,
      "Ġarmed": 3278,
      "Ġacab": 3279,
      "Ġrelacion": 3280,
      "Ġnuev": 3281,
      "Ġrefug": 3282,
      "Ġproblema": 3283,
      "Ġinstitutions": 3284,
      "IV": 3285,
      "Tiene": 3286,
      "Usted": 3287,
      "gar": 3288,
      "ling": 3289,
      "uciones": 3290,
      "Ġcla": 3291,
      "ouble": 3292,
      "itary": 3293,
      "ĠCan": 3294,
      "Ġ28": 3295,
      "Ġrad": 3296,
      "Ġjob": 3297,
      "Ġwasn": 3298,
      "ensa": 3299,
      "ically": 3300,
      "Ġpodemos": 3301,
      "Ġbring": 3302,
      "Ġcapacity": 3303,
      "Ġdrink": 3304,
      "ĠdecisiÃ³n": 3305,
      "ucir": 3306,
      "Ġquestion": 3307,
      "ĠmÃ©d": 3308,
      "ĠDepart": 3309,
      "OS": 3310,
      "ĠThis": 3311,
      "Ġsl": 3312,
      "Ġpus": 3313,
      "Ġpot": 3314,
      "iter": 3315,
      "isa": 3316,
      "Ġfuck": 3317,
      "unci": 3318,
      "ÃŃdo": 3319,
      "imas": 3320,
      "uras": 3321,
      "utions": 3322,
      "istro": 3323,
      "Ġleast": 3324,
      "ĠJan": 3325,
      "Ġknew": 3326,
      "Ġenter": 3327,
      "Ġgrupo": 3328,
      "Ġempe": 3329,
      "Ġproblemas": 3330,
      "Ġponer": 3331,
      "Maybe": 3332,
      "Ġframework": 3333,
      "EP": 3334,
      "Please": 3335,
      "Res": 3336,
      "With": 3337,
      "laciÃ³n": 3338,
      "ph": 3339,
      "pro": 3340,
      "eras": 3341,
      "Ġsk": 3342,
      "Ġlista": 3343,
      "Ġmad": 3344,
      "Ġhard": 3345,
      "aby": 3346,
      "ĠCent": 3347,
      "ĠMon": 3348,
      "ify": 3349,
      "Ġju": 3350,
      "Ġmyself": 3351,
      "Ġregres": 3352,
      "Ġpass": 3353,
      "Ġ50": 3354,
      "Ġrob": 3355,
      "Ġdije": 3356,
      "ĠseÃ±al": 3357,
      "Ġorganizaciones": 3358,
      "Ġmov": 3359,
      "Ġadop": 3360,
      "ĠAmer": 3361,
      "Ġmorning": 3362,
      "Ġsiguiente": 3363,
      "Ġprogress": 3364,
      "Ġpossible": 3365,
      "eptember": 3366,
      "Ġguerra": 3367,
      "cre": 3368,
      "cle": 3369,
      "Ġluch": 3370,
      "ostr": 3371,
      "Ġhell": 3372,
      "ides": 3373,
      "Ġconcl": 3374,
      "igen": 3375,
      "ĠalgÃºn": 3376,
      "ĠMember": 3377,
      "Ġjul": 3378,
      "ĠNew": 3379,
      "Ġarea": 3380,
      "Ġdispar": 3381,
      "Ġprevent": 3382,
      "Ġinformes": 3383,
      "Ġimporta": 3384,
      "Ġtoday": 3385,
      "Ġcriminal": 3386,
      "Ġcondiciones": 3387,
      "Ġassess": 3388,
      "ĠEspecial": 3389,
      "Ġsociedad": 3390,
      "ĠeducaciÃ³n": 3391,
      "Ġcertain": 3392,
      "ĠdeberÃŃa": 3393,
      "Puedo": 3394,
      "ĠAfrican": 3395,
      "Ġrelevant": 3396,
      "ĠvÃŃct": 3397,
      "29": 3398,
      "Every": 3399,
      "US": 3400,
      "ev": 3401,
      "Ġil": 3402,
      "Ġsleep": 3403,
      "Ġpower": 3404,
      "Ġdeath": 3405,
      "itation": 3406,
      "Ġwife": 3407,
      "Ġbajo": 3408,
      "Ġvan": 3409,
      "Ġalm": 3410,
      "These": 3411,
      "ĠPh": 3412,
      "Ġprueb": 3413,
      "ĠFe": 3414,
      "ĠJohn": 3415,
      "Ġaction": 3416,
      "Ġsix": 3417,
      "Ġsaf": 3418,
      "Ġhacerlo": 3419,
      "Ġsigue": 3420,
      "Ġocc": 3421,
      "Ġformul": 3422,
      "Ġcabo": 3423,
      "Ġtrata": 3424,
      "Ġseguro": 3425,
      "Ġsociety": 3426,
      "Ġestablish": 3427,
      "ĠHumanos": 3428,
      "Ġextre": 3429,
      "Todos": 3430,
      "Ġconformidad": 3431,
      "Ġdemasiado": 3432,
      "Be": 3433,
      "band": 3434,
      "Ġdol": 3435,
      "ins": 3436,
      "Ġsecre": 3437,
      "Ġpur": 3438,
      "orn": 3439,
      "orld": 3440,
      "Ġmigr": 3441,
      "Ġmerc": 3442,
      "els": 3443,
      "Ġgen": 3444,
      "illo": 3445,
      "Ġvia": 3446,
      "ĠShe": 3447,
      "Ġseem": 3448,
      "tober": 3449,
      "verdad": 3450,
      "Ġtras": 3451,
      "ĠNational": 3452,
      "ĠWork": 3453,
      "ensive": 3454,
      "Ġpresid": 3455,
      "ĠYOU": 3456,
      "ples": 3457,
      "Ġpast": 3458,
      "Ġguys": 3459,
      "abajo": 3460,
      "Ġlibert": 3461,
      "Ġadopted": 3462,
      "Quieres": 3463,
      "Ġgirls": 3464,
      "Ġmeses": 3465,
      "Ġjulio": 3466,
      "Nos": 3467,
      "ged": 3468,
      "ran": 3469,
      "Ġcinco": 3470,
      "quiera": 3471,
      "Ġfecha": 3472,
      "omin": 3473,
      "imon": 3474,
      "iga": 3475,
      "ĠSal": 3476,
      "ĠSeptember": 3477,
      "ĠDis": 3478,
      "ĠGo": 3479,
      "ither": 3480,
      "ĠprÃ³": 3481,
      "Ġheart": 3482,
      "ĠConferencia": 3483,
      "ĠInform": 3484,
      "Ġexpress": 3485,
      "Ġequipo": 3486,
      "Ġeffect": 3487,
      "ĠAdministr": 3488,
      "Ġauthorities": 3489,
      "Ġbreak": 3490,
      "Ġmonths": 3491,
      "Ġaccordance": 3492,
      "iores": 3493,
      "iÃ±o": 3494,
      "mm": 3495,
      "ward": 3496,
      "ern": 3497,
      "Ġsan": 3498,
      "Ġsens": 3499,
      "Ġliving": 3500,
      "Ġcierto": 3501,
      "Ġdeal": 3502,
      "ision": 3503,
      "Ġtown": 3504,
      "Ġvig": 3505,
      "ĠSi": 3506,
      "ĠSp": 3507,
      "Ġsept": 3508,
      "Ġmeans": 3509,
      "ules": 3510,
      "ĠMed": 3511,
      "ĠPor": 3512,
      "vert": 3513,
      "Ġsoon": 3514,
      "Ġexact": 3515,
      "Ġarticle": 3516,
      "Ġallow": 3517,
      "Ġdeben": 3518,
      "ĠRepresent": 3519,
      "ĠMarch": 3520,
      "Ġopin": 3521,
      "Ġeconom": 3522,
      "ĠIsrael": 3523,
      "ology": 3524,
      "Ġfriends": 3525,
      "Ġtonight": 3526,
      "ĠOctober": 3527,
      "Ġnecessary": 3528,
      "Ġhospital": 3529,
      "28": 3530,
      "Par": 3531,
      "ai": 3532,
      "Ġlan": 3533,
      "Ġhici": 3534,
      "ental": 3535,
      "Ġreform": 3536,
      "Ġvirt": 3537,
      "Ġasp": 3538,
      "ceed": 3539,
      "uda": 3540,
      "Ġship": 3541,
      "Ġgob": 3542,
      "Ġchang": 3543,
      "Ġserious": 3544,
      "aving": 3545,
      "Ġfine": 3546,
      "Ġmedia": 3547,
      "Ġ40": 3548,
      "Ġcontinued": 3549,
      "Ġtaking": 3550,
      "Desp": 3551,
      "ĠChrist": 3552,
      "Ġrecogn": 3553,
      "Af": 3554,
      "Mira": 3555,
      "Sr": 3556,
      "ove": 3557,
      "Ġtort": 3558,
      "Ġach": 3559,
      "ars": 3560,
      "Ġhope": 3561,
      "Ġfoc": 3562,
      "untar": 3563,
      "ĠSte": 3564,
      "ulo": 3565,
      "ĠPero": 3566,
      "iful": 3567,
      "ĠRel": 3568,
      "iza": 3569,
      "ĠTe": 3570,
      "ĠUd": 3571,
      "Ġable": 3572,
      "brero": 3573,
      "Ġtenido": 3574,
      "Ġrelig": 3575,
      "CuÃ¡n": 3576,
      "Ġprovisional": 3577,
      "ĠCourt": 3578,
      "ET": 3579,
      "iembre": 3580,
      "just": 3581,
      "more": 3582,
      "uto": 3583,
      "orge": 3584,
      "ismos": 3585,
      "ecan": 3586,
      "Ġenfer": 3587,
      "ĠgestiÃ³n": 3588,
      "ĠApr": 3589,
      "Ġra": 3590,
      "izÃ¡": 3591,
      "Ġdesign": 3592,
      "Ġshot": 3593,
      "echan": 3594,
      "Ġminute": 3595,
      "ĠniÃ±o": 3596,
      "istry": 3597,
      "Ġefect": 3598,
      "Ġmateria": 3599,
      "NUD": 3600,
      "Gracias": 3601,
      "Ġstep": 3602,
      "Ġreceived": 3603,
      "ĠJanuary": 3604,
      "Br": 3605,
      "iados": 3606,
      "side": 3607,
      "ĠWhy": 3608,
      "eron": 3609,
      "Ġlado": 3610,
      "Ġdear": 3611,
      "oura": 3612,
      "Ġwel": 3613,
      "Ġful": 3614,
      "Ġansw": 3615,
      "Ġespeci": 3616,
      "Ġenero": 3617,
      "Ġconsegu": 3618,
      "iger": 3619,
      "ĠStr": 3620,
      "ĠMiss": 3621,
      "Ġries": 3622,
      "ĠcuestiÃ³n": 3623,
      "Ġprest": 3624,
      "Ġcover": 3625,
      "Ġanyone": 3626,
      "icking": 3627,
      "Ġstrength": 3628,
      "ĠTrabajo": 3629,
      "ienda": 3630,
      "Ġpobre": 3631,
      "Ġasked": 3632,
      "Ġminutes": 3633,
      "Ãīl": 3634,
      "Ġpueblo": 3635,
      "40": 3636,
      "Ser": 3637,
      "vember": 3638,
      "Ġsing": 3639,
      "Ġbomb": 3640,
      "Ġgiven": 3641,
      "Ġconj": 3642,
      "eter": 3643,
      "resos": 3644,
      "ĠMis": 3645,
      "ĠPan": 3646,
      "iff": 3647,
      "ueva": 3648,
      "Ġprison": 3649,
      "ĠLet": 3650,
      "Ġdistrib": 3651,
      "ĠUniÃ³n": 3652,
      "Ġ--": 3653,
      "ĠWell": 3654,
      "Ġuso": 3655,
      "Ġobject": 3656,
      "Ġwants": 3657,
      "Ġreports": 3658,
      "However": 3659,
      "Ġcabeza": 3660,
      "Ġayuda": 3661,
      "Ġmanten": 3662,
      "apacidad": 3663,
      "Ġavailable": 3664,
      "equ": 3665,
      "wards": 3666,
      "Ġerr": 3667,
      "arr": 3668,
      "Ġhus": 3669,
      "Ġbaj": 3670,
      "Ġanim": 3671,
      "roll": 3672,
      "Ġrefer": 3673,
      "igin": 3674,
      "Ġeas": 3675,
      "Ġevent": 3676,
      "ĠMil": 3677,
      "aps": 3678,
      "Ġcheck": 3679,
      "Ġaccount": 3680,
      "Tenemos": 3681,
      "Ġproblem": 3682,
      "Ġdiscuss": 3683,
      "Ġcambio": 3684,
      "Ġmaterial": 3685,
      "Ġdepend": 3686,
      "Ġmuerte": 3687,
      "Ġmuerto": 3688,
      "Ġestrateg": 3689,
      "Ġencuent": 3690,
      "Cre": 3691,
      "Dis": 3692,
      "Okay": 3693,
      "bl": 3694,
      "ians": 3695,
      "oto": 3696,
      "oint": 3697,
      "Ġaqu": 3698,
      "ongo": 3699,
      "Ġluego": 3700,
      "anco": 3701,
      "Ġfre": 3702,
      "Ġbast": 3703,
      "ecause": 3704,
      "Ġgone": 3705,
      "ivas": 3706,
      "uth": 3707,
      "Ġlog": 3708,
      "ape": 3709,
      "seÃ±": 3710,
      "ĠBe": 3711,
      "ĠNot": 3712,
      "Ġprev": 3713,
      "Ġamigos": 3714,
      "Ġmisma": 3715,
      "Ġofficial": 3716,
      "Ġcouldn": 3717,
      "Ġbecome": 3718,
      "Ġexamin": 3719,
      "Ġspeak": 3720,
      "Ġdocumento": 3721,
      "Ġtraff": 3722,
      "Ġsexual": 3723,
      "Ġgovernment": 3724,
      "Ġinstituciones": 3725,
      "loyment": 3726,
      "Ġrecomendaciones": 3727,
      "Ġsuficiente": 3728,
      "Ġejemplo": 3729,
      "Ġseptiembre": 3730,
      "ĠApril": 3731,
      "AL": 3732,
      "Ap": 3733,
      "Mar": 3734,
      "lor": 3735,
      "view": 3736,
      "inos": 3737,
      "Ġlater": 3738,
      "orrow": 3739,
      "isf": 3740,
      "adora": 3741,
      "Ġbot": 3742,
      "Ġeng": 3743,
      "Ġgas": 3744,
      "Ġgol": 3745,
      "Ġelimin": 3746,
      "Ġreach": 3747,
      "irse": 3748,
      "urales": 3749,
      "Ġforce": 3750,
      "Ġperman": 3751,
      "Ġchica": 3752,
      "ages": 3753,
      "Ġweek": 3754,
      "ĠCons": 3755,
      "Ġadv": 3756,
      "Ġregul": 3757,
      "Ġsomeone": 3758,
      "Ġneeds": 3759,
      "Ġproyectos": 3760,
      "Ġveo": 3761,
      "Ġminutos": 3762,
      "Ġrecommendations": 3763,
      "Ġtechnical": 3764,
      "ĠprÃ³xim": 3765,
      "Ġhusband": 3766,
      "\"?": 3767,
      "Pre": 3768,
      "SÃ©": 3769,
      "Voy": 3770,
      "udo": 3771,
      "ubre": 3772,
      "Ġuh": 3773,
      "Ġain": 3774,
      "Ġsto": 3775,
      "Ġless": 3776,
      "Ġhalf": 3777,
      "abe": 3778,
      "imientos": 3779,
      "Ġnote": 3780,
      "aced": 3781,
      "Ġappe": 3782,
      "Ġcuer": 3783,
      "Ġcompar": 3784,
      "ĠUnion": 3785,
      "ĠNovember": 3786,
      "Ġmark": 3787,
      "Ġincluy": 3788,
      "Ġoffice": 3789,
      "Ġcorresp": 3790,
      "Ġbrought": 3791,
      "ĠMrs": 3792,
      "uestas": 3793,
      "vious": 3794,
      "Ġdefin": 3795,
      "ĠparticipaciÃ³n": 3796,
      "Ġconstr": 3797,
      "Ġalgunas": 3798,
      "ologÃŃa": 3799,
      "ĠquerÃŃa": 3800,
      "ĠtravÃ©s": 3801,
      "DP": 3802,
      "ii": 3803,
      "Ġtre": 3804,
      "ery": 3805,
      "erte": 3806,
      "ĠlÃŃ": 3807,
      "arias": 3808,
      "rea": 3809,
      "iso": 3810,
      "Ġfood": 3811,
      "Ġbudget": 3812,
      "ÃŃt": 3813,
      "Ġgun": 3814,
      "emas": 3815,
      "acy": 3816,
      "ĠrÃ¡p": 3817,
      "raid": 3818,
      "ĠCongo": 3819,
      "Ġpartners": 3820,
      "Ġpresup": 3821,
      "bruary": 3822,
      "Inform": 3823,
      "Ġfueron": 3824,
      "Ġsignific": 3825,
      "Ġzonas": 3826,
      "where": 3827,
      "Ġinstrument": 3828,
      "Ese": 3829,
      "OT": 3830,
      "Ġsect": 3831,
      "itution": 3832,
      "Ġothers": 3833,
      "Ġwatch": 3834,
      "Ġwalk": 3835,
      "Ġfire": 3836,
      "ecn": 3837,
      "ĠgÃ©n": 3838,
      "Ġejer": 3839,
      "acciÃ³n": 3840,
      "truct": 3841,
      "Ġprote": 3842,
      "ĠPal": 3843,
      "Ġresid": 3844,
      "ĠFund": 3845,
      "Ġchall": 3846,
      "ured": 3847,
      "frica": 3848,
      "Ġ198": 3849,
      "ĠdifÃŃ": 3850,
      "Ġvisit": 3851,
      "Ġorganizations": 3852,
      "Add": 3853,
      "Ġalguna": 3854,
      "ĠPartes": 3855,
      "ĠjurÃŃd": 3856,
      "ĠSomalia": 3857,
      "ĠBoard": 3858,
      "Ġesfuer": 3859,
      "Ġlibertad": 3860,
      "21": 3861,
      "DÃ©j": 3862,
      "Tell": 3863,
      "iqu": 3864,
      "zos": 3865,
      "Ġsil": 3866,
      "Ġcut": 3867,
      "arla": 3868,
      "aso": 3869,
      "ately": 3870,
      "itÃ¡n": 3871,
      "isto": 3872,
      "Ġfight": 3873,
      "Ġfree": 3874,
      "icina": 3875,
      "ames": 3876,
      "ilar": 3877,
      "Ġvac": 3878,
      "ĠCl": 3879,
      "ĠSir": 3880,
      "Ġalong": 3881,
      "ury": 3882,
      "ĠPers": 3883,
      "ode": 3884,
      "ctubre": 3885,
      "umb": 3886,
      "ĠUnidos": 3887,
      "Ġmano": 3888,
      "Ġrelated": 3889,
      "Ġmuchos": 3890,
      "Ġsusp": 3891,
      "ounds": 3892,
      "Ġposit": 3893,
      "Ġhaya": 3894,
      "Ġedad": 3895,
      "Ġinsp": 3896,
      "Ġfacilit": 3897,
      "Ġreturn": 3898,
      "ĠpÃºblico": 3899,
      "Ġsatisf": 3900,
      "Ġbeautiful": 3901,
      "Ella": 3902,
      "His": 3903,
      "Î¿": 3904,
      "Ġago": 3905,
      "Ġsim": 3906,
      "Ġmajor": 3907,
      "Ġhemos": 3908,
      "iscal": 3909,
      "quis": 3910,
      "Ġfall": 3911,
      "Ġtop": 3912,
      "Ġready": 3913,
      "iles": 3914,
      "ĠSud": 3915,
      "Ġsever": 3916,
      "irst": 3917,
      "Ġaltern": 3918,
      "Ġsuc": 3919,
      "ĠMy": 3920,
      "Ġcommit": 3921,
      "Ġestre": 3922,
      "Ġaseg": 3923,
      "endido": 3924,
      "ĠTO": 3925,
      "ource": 3926,
      "ĠUnivers": 3927,
      "Ġagre": 3928,
      "Ġactu": 3929,
      "Ġregular": 3930,
      "Ġimpact": 3931,
      "Ġrespuesta": 3932,
      "Ġoffic": 3933,
      "crip": 3934,
      "Ġprogrammes": 3935,
      "Ġnecesidad": 3936,
      "Ġmonitor": 3937,
      "Ġmove": 3938,
      "viembre": 3939,
      "Ġestablished": 3940,
      "ĠfinanciaciÃ³n": 3941,
      "Ġbook": 3942,
      "Ġagrad": 3943,
      "Ġreason": 3944,
      "Ġsimple": 3945,
      "CO": 3946,
      "Will": 3947,
      "gado": 3948,
      "uir": 3949,
      "ĠmamÃ¡": 3950,
      "Ġhit": 3951,
      "edo": 3952,
      "Ġface": 3953,
      "ĠenseÃ±": 3954,
      "acia": 3955,
      "acio": 3956,
      "ĠSam": 3957,
      "ĠMal": 3958,
      "ĠPre": 3959,
      "Ġpros": 3960,
      "ists": 3961,
      "Ġsho": 3962,
      "Ġnoted": 3963,
      "ĠWorld": 3964,
      "Ġjusticia": 3965,
      "Ġmuchach": 3966,
      "Ġsalir": 3967,
      "Ġsubject": 3968,
      "Ġnecesit": 3969,
      "Ġsays": 3970,
      "cional": 3971,
      "Ġstrong": 3972,
      "abilities": 3973,
      "ĠorganizaciÃ³n": 3974,
      "Ġbasis": 3975,
      "Ġcomprom": 3976,
      "Ġapproach": 3977,
      "Ġappropr": 3978,
      "Ġconcern": 3979,
      "Ġprofes": 3980,
      "Ġpuesto": 3981,
      "Ġmurder": 3982,
      "ĠFebruary": 3983,
      "au": 3984,
      "bra": 3985,
      "cord": 3986,
      "iales": 3987,
      "ĠÃ³r": 3988,
      "enn": 3989,
      "Ġline": 3990,
      "Ġpun": 3991,
      "Ġdev": 3992,
      "Ġod": 3993,
      "Ġfield": 3994,
      "Ġbuy": 3995,
      "Ġing": 3996,
      "Ã³d": 3997,
      "Ã³ven": 3998,
      "abas": 3999,
      "Ġsuced": 4000,
      "ĠAud": 4001,
      "Ġproper": 4002,
      "Ġforces": 4003,
      "Ġ29": 4004,
      "iciales": 4005,
      "ĠDel": 4006,
      "ifica": 4007,
      "isten": 4008,
      "ĠHar": 4009,
      "Ġdesap": 4010,
      "ĠOn": 4011,
      "ĠserÃŃa": 4012,
      "aint": 4013,
      "Ġcompon": 4014,
      "Ġpasar": 4015,
      "Ġafraid": 4016,
      "Ġdeveloping": 4017,
      "Ġconstitu": 4018,
      "ĠÃºltimo": 4019,
      "Ġjuris": 4020,
      "Ġsmall": 4021,
      "Ġlimit": 4022,
      "Ġgarantizar": 4023,
      "Ġiniti": 4024,
      "Ġfocus": 4025,
      "Act": 4026,
      "EF": 4027,
      "Ni": 4028,
      "lam": 4029,
      "Ġtas": 4030,
      "ono": 4031,
      "ony": 4032,
      "Ġlle": 4033,
      "anas": 4034,
      "Ġwanna": 4035,
      "omos": 4036,
      "Ġlack": 4037,
      "Ġofre": 4038,
      "Ġoffer": 4039,
      "ecuciÃ³n": 4040,
      "Ġgender": 4041,
      "Ġconven": 4042,
      "Ġvul": 4043,
      "Ġnota": 4044,
      "Ġrom": 4045,
      "Ġrid": 4046,
      "Ġperform": 4047,
      "Ġpertin": 4048,
      "apa": 4049,
      "ĠBuen": 4050,
      "Ġdestr": 4051,
      "Ġacer": 4052,
      "Ent": 4053,
      "Ġcontigo": 4054,
      "ĠInstitu": 4055,
      "ually": 4056,
      "ogue": 4057,
      "ĠThey": 4058,
      "Ġguar": 4059,
      "Ġguess": 4060,
      "Ġ2007": 4061,
      "eful": 4062,
      "ĠseÃ±ora": 4063,
      "Ġrequire": 4064,
      "Ġterritor": 4065,
      "ĠgustarÃŃa": 4066,
      "Ġvalor": 4067,
      "ĠpapÃ¡": 4068,
      "Ġdestin": 4069,
      "Ġutiliz": 4070,
      "ĠOrganization": 4071,
      "Ġhermano": 4072,
      "Ġvictims": 4073,
      "ĠDirector": 4074,
      "Ġsustainable": 4075,
      "Ġnegoci": 4076,
      "Ã³venes": 4077,
      "\",": 4078,
      "60": 4079,
      "Muy": 4080,
      "PA": 4081,
      "RC": 4082,
      "iro": 4083,
      "jas": 4084,
      "ka": 4085,
      "xto": 4086,
      "Ġtip": 4087,
      "Ġdigo": 4088,
      "Ġsiendo": 4089,
      "Ġlad": 4090,
      "ats": 4091,
      "Ġoctubre": 4092,
      "entle": 4093,
      "ĠfÃ¡": 4094,
      "Ġvi": 4095,
      "Ġvo": 4096,
      "eth": 4097,
      "ĠCap": 4098,
      "Ġcomes": 4099,
      "Ġbegin": 4100,
      "apons": 4101,
      "ĠNacional": 4102,
      "Ġapart": 4103,
      "ocrÃ¡": 4104,
      "aves": 4105,
      "oraz": 4106,
      "ificar": 4107,
      "Ġ60": 4108,
      "Ġservice": 4109,
      "Ġvista": 4110,
      "ample": 4111,
      "ĠArab": 4112,
      "Ġresultados": 4113,
      "Ġmilitar": 4114,
      "Ġcerca": 4115,
      "Ġhands": 4116,
      "Ġbrother": 4117,
      "Ġautoridades": 4118,
      "Ġescuch": 4119,
      "Ġgrande": 4120,
      "Ġabril": 4121,
      "Ġtempor": 4122,
      "Of": 4123,
      "line": 4124,
      "nes": 4125,
      "Ġtimes": 4126,
      "Ġdue": 4127,
      "aring": 4128,
      "ases": 4129,
      "Ġenvi": 4130,
      "imen": 4131,
      "Ġnoviembre": 4132,
      "teriores": 4133,
      "Ġprohib": 4134,
      "ĠMisiÃ³n": 4135,
      "ĠEm": 4136,
      "Ġpers": 4137,
      "the": 4138,
      "ĠRuss": 4139,
      "Ġpuerta": 4140,
      "Ġstate": 4141,
      "Ġadecu": 4142,
      "Ġknows": 4143,
      "Ġworry": 4144,
      "Ġcontact": 4145,
      "Ġjustice": 4146,
      "aza": 4147,
      "Ġmarzo": 4148,
      "Ġhaces": 4149,
      "Ġ2006": 4150,
      "Ġnecesario": 4151,
      "Ġequiv": 4152,
      "Ġbased": 4153,
      "Ġbusc": 4154,
      "Ġllegar": 4155,
      "ĠParties": 4156,
      "Ġvivir": 4157,
      "Ġclaro": 4158,
      "Ġhurt": 4159,
      "ĠpoblaciÃ³n": 4160,
      "Ġcorrespond": 4161,
      "CT": 4162,
      "Have": 4163,
      "dy": 4164,
      "Ġaver": 4165,
      "Ġdial": 4166,
      "Ġsecretar": 4167,
      "Ġmundial": 4168,
      "aster": 4169,
      "rel": 4170,
      "Ġbod": 4171,
      "Ġanal": 4172,
      "Ġeyes": 4173,
      "uls": 4174,
      "ĠPl": 4175,
      "ĠPer": 4176,
      "Ġtrip": 4177,
      "apporte": 4178,
      "ierta": 4179,
      "ĠjÃ³venes": 4180,
      "Ġdoor": 4181,
      "encies": 4182,
      "ĠJoe": 4183,
      "bert": 4184,
      "Ġagu": 4185,
      "Ġteam": 4186,
      "ĠtodavÃŃa": 4187,
      "amentos": 4188,
      "Ġtransfer": 4189,
      "Ġcontract": 4190,
      "Ġfamiliar": 4191,
      "Ġemerg": 4192,
      "Ġtomar": 4193,
      "Ġdiscapacidad": 4194,
      "III": 4195,
      "Ġfuerzas": 4196,
      "ĠsesiÃ³n": 4197,
      "Ġcamino": 4198,
      "Ġdepart": 4199,
      "Ġpapel": 4200,
      "Puede": 4201,
      "Ġfuture": 4202,
      "ĠMiembros": 4203,
      "Ġpronto": 4204,
      "ĠWorking": 4205,
      "ĠdifÃŃcil": 4206,
      "?\"": 4207,
      "Am": 4208,
      "Car": 4209,
      "uvo": 4210,
      "Ġtit": 4211,
      "Ġps": 4212,
      "Ġpet": 4213,
      "Ġmaking": 4214,
      "Ġgave": 4215,
      "Ġelement": 4216,
      "Ã¡lo": 4217,
      "imate": 4218,
      "ively": 4219,
      "ĠPlan": 4220,
      "Ġ27": 4221,
      "Ġdeliver": 4222,
      "ĠRec": 4223,
      "Ġdese": 4224,
      "Ġord": 4225,
      "Ġorigin": 4226,
      "ĠOF": 4227,
      "Ġplen": 4228,
      "Ġdise": 4229,
      "Ġconsum": 4230,
      "ĠYa": 4231,
      "laro": 4232,
      "erry": 4233,
      "ianza": 4234,
      "Ġguid": 4235,
      "head": 4236,
      "Siempre": 4237,
      "Ġafect": 4238,
      "anger": 4239,
      "Ġreported": 4240,
      "overty": 4241,
      "selves": 4242,
      "Ġdemon": 4243,
      "Ġinclude": 4244,
      "Ġeffective": 4245,
      "ĠExper": 4246,
      "Ġattention": 4247,
      "Desde": 4248,
      "ĠJunta": 4249,
      "Ġsemana": 4250,
      "Ġcommunic": 4251,
      "ĠMinisterio": 4252,
      "ĠÃºnico": 4253,
      "ocratic": 4254,
      "ĠvÃŃctimas": 4255,
      "Ġanswer": 4256,
      "cording": 4257,
      "22": 4258,
      "MA": 4259,
      "Rep": 4260,
      "aw": 4261,
      "Ġav": 4262,
      "onel": 4263,
      "Ġlight": 4264,
      "Ġlargo": 4265,
      "Ġcant": 4266,
      "Ġthank": 4267,
      "ĠmÃ¡": 4268,
      "Ġmechan": 4269,
      "amin": 4270,
      "Ġlost": 4271,
      "ĠMor": 4272,
      "ĠTen": 4273,
      "Ġorient": 4274,
      "Ġfrente": 4275,
      "Ġrespon": 4276,
      "Ġcrisis": 4277,
      "Algun": 4278,
      "ĠArticle": 4279,
      "Ġustedes": 4280,
      "Ġmeetings": 4281,
      "Ġreuniones": 4282,
      "Art": 4283,
      "Ġauto": 4284,
      "ĠAfrica": 4285,
      "199": 4286,
      "Ġasesin": 4287,
      "Ġfundamental": 4288,
      "Ġrisk": 4289,
      "Ġvirtud": 4290,
      "Ġasegur": 4291,
      "EL": 4292,
      "das": 4293,
      "eh": 4294,
      "ujer": 4295,
      "Ġill": 4296,
      "Ġlate": 4297,
      "Ġpud": 4298,
      "Ġpunto": 4299,
      "Ġcand": 4300,
      "Ġmus": 4301,
      "Ġbur": 4302,
      "unch": 4303,
      "Ġenj": 4304,
      "Ã©st": 4305,
      "ĠSu": 4306,
      "Ġsuff": 4307,
      "urante": 4308,
      "ula": 4309,
      "ĠMa": 4310,
      "app": 4311,
      "Ġexc": 4312,
      "Ġage": 4313,
      "Porque": 4314,
      "Ġsalv": 4315,
      "Ġcapital": 4316,
      "Ġfebrero": 4317,
      "Ġtrabajar": 4318,
      "ĠTrans": 4319,
      "Ġkey": 4320,
      "Ġencontrar": 4321,
      "Ġconcerned": 4322,
      "ĠPrograma": 4323,
      "Ġhistoria": 4324,
      "ĠEconÃ³m": 4325,
      "ĠelectrÃ³n": 4326,
      "Ġtrafficking": 4327,
      "CC": 4328,
      "EA": 4329,
      "Era": 4330,
      "Les": 4331,
      "Reg": 4332,
      "Take": 4333,
      "ding": 4334,
      "hensive": 4335,
      "ken": 4336,
      "rÃ¡n": 4337,
      "yn": 4338,
      "Â´": 4339,
      "Ġido": 4340,
      "Ġiba": 4341,
      "Ġty": 4342,
      "Ġavan": 4343,
      "Ġdado": 4344,
      "Ġlik": 4345,
      "anquil": 4346,
      "Ġmientras": 4347,
      "Ġincid": 4348,
      "Ġanex": 4349,
      "ÃŃgen": 4350,
      "Ġenem": 4351,
      "ilater": 4352,
      "olid": 4353,
      "acer": 4354,
      "uros": 4355,
      "Ġproces": 4356,
      "ĠEj": 4357,
      "ĠUS": 4358,
      "Ġapr": 4359,
      "Ġcuatro": 4360,
      "Ġnear": 4361,
      "Ġrespond": 4362,
      "Ġmedic": 4363,
      "Ġmuchas": 4364,
      "Ġpropos": 4365,
      "Ġtransport": 4366,
      "aÃ±a": 4367,
      "Ġlibre": 4368,
      "Ġpoor": 4369,
      "Ġhorr": 4370,
      "Ġhappen": 4371,
      "Ġjuntos": 4372,
      "ĠejecuciÃ³n": 4373,
      "reedom": 4374,
      "Ġsostenible": 4375,
      "Ġpretty": 4376,
      "ĠMission": 4377,
      "ĠgÃ©nero": 4378,
      "Ġguarante": 4379,
      "lamento": 4380,
      "ov": 4381,
      "ole": 4382,
      "Ġdate": 4383,
      "Ġmakes": 4384,
      "Ġmecan": 4385,
      "Ġfell": 4386,
      "Ġescrib": 4387,
      "Ġconclus": 4388,
      "Ã©nd": 4389,
      "Ġvarios": 4390,
      "ĠDad": 4391,
      "ĠperiÃ³": 4392,
      "Ġexport": 4393,
      "ĠBien": 4394,
      "ĠConst": 4395,
      "ĠWill": 4396,
      "ioso": 4397,
      "guro": 4398,
      "Ġupon": 4399,
      "Ġmedios": 4400,
      "Ġrealmente": 4401,
      "Ġguard": 4402,
      "ondos": 4403,
      "Ġtranspar": 4404,
      "Ġreporting": 4405,
      "Ġcolabor": 4406,
      "Ġmejorar": 4407,
      "Ġletter": 4408,
      "Ġaddition": 4409,
      "Ġhappy": 4410,
      "ĠMinistry": 4411,
      "Ġmoment": 4412,
      "Ġmilitary": 4413,
      "ecutive": 4414,
      "ĠWhere": 4415,
      "Ġarriba": 4416,
      "ĠningÃºn": 4417,
      "Ġpelig": 4418,
      "Ġwaiting": 4419,
      "Ġnormas": 4420,
      "Ġsitio": 4421,
      "Ġpopulation": 4422,
      "Ġempresas": 4423,
      "Ġabsol": 4424,
      "Ġachie": 4425,
      "ÃŃgenas": 4426,
      "Ind": 4427,
      "ĠQue": 4428,
      "Ġcat": 4429,
      "Ġcle": 4430,
      "Ġcateg": 4431,
      "Ġcoraz": 4432,
      "Ġmut": 4433,
      "atÃ©g": 4434,
      "Ġhar": 4435,
      "Ġojos": 4436,
      "Ġfail": 4437,
      "Ġbal": 4438,
      "Ġbaby": 4439,
      "Ġescal": 4440,
      "let": 4441,
      "ĠCome": 4442,
      "ĠSouth": 4443,
      "Ġeat": 4444,
      "uty": 4445,
      "ĠestÃ©": 4446,
      "Ġbeb": 4447,
      "ĠEr": 4448,
      "Ġrather": 4449,
      "Ġtrouble": 4450,
      "ieran": 4451,
      "ects": 4452,
      "Ġche": 4453,
      "Ġcho": 4454,
      "Ġchance": 4455,
      "Ġchico": 4456,
      "Ġmiedo": 4457,
      "ĠregiÃ³n": 4458,
      "Ġrelations": 4459,
      "Ġmarido": 4460,
      "Ġsino": 4461,
      "Ġclose": 4462,
      "Ġnecesidades": 4463,
      "Ġsaying": 4464,
      "Ġdeveloped": 4465,
      "2015": 4466,
      "ĠSecretarÃŃa": 4467,
      "Ġayudar": 4468,
      "Ġlisten": 4469,
      "Ġcommunity": 4470,
      "ĠOrganizaciÃ³n": 4471,
      "Ġconflict": 4472,
      "Ġvarious": 4473,
      "razy": 4474,
      "ĠevaluaciÃ³n": 4475,
      "bernament": 4476,
      "ughter": 4477,
      "Ġplazo": 4478,
      "ĠGeorge": 4479,
      "Ġalmost": 4480,
      "Ġvulner": 4481,
      "Ã¡logo": 4482,
      "33": 4483,
      "Fue": 4484,
      "Pues": 4485,
      "Seg": 4486,
      "UR": 4487,
      "gent": 4488,
      "iation": 4489,
      "jar": 4490,
      "nel": 4491,
      "not": 4492,
      "uf": 4493,
      "Ġata": 4494,
      "Ġdorm": 4495,
      "Ġpick": 4496,
      "Ġmem": 4497,
      "Ġmember": 4498,
      "asing": 4499,
      "reet": 4500,
      "cis": 4501,
      "icana": 4502,
      "ecen": 4503,
      "Ġgast": 4504,
      "acter": 4505,
      "Ġsuerte": 4506,
      "ĠAN": 4507,
      "icies": 4508,
      "icient": 4509,
      "Ġwhether": 4510,
      "ĠBro": 4511,
      "ĠHer": 4512,
      "Ġlear": 4513,
      "Ġdescu": 4514,
      "Ġpubl": 4515,
      "Ġyours": 4516,
      "Ġcasi": 4517,
      "Ġpueda": 4518,
      "unda": 4519,
      "SeÃ±or": 4520,
      "Ġmaybe": 4521,
      "Ġimportancia": 4522,
      "Ġincor": 4523,
      "Ġocurr": 4524,
      "Ġfunct": 4525,
      "Ġmodo": 4526,
      "mediat": 4527,
      "ĠdemÃ¡s": 4528,
      "Ġnueva": 4529,
      "posed": 4530,
      "Ġprincipal": 4531,
      "Ġattack": 4532,
      "ĠEuropea": 4533,
      "Ġzona": 4534,
      "ĠinvestigaciÃ³n": 4535,
      "Ġsiguientes": 4536,
      "Ġjudicial": 4537,
      "ĠProgramme": 4538,
      "ĠdiscriminaciÃ³n": 4539,
      "igenous": 4540,
      "67": 4541,
      "Co": 4542,
      "IL": 4543,
      "Uh": 4544,
      "ba": 4545,
      "mientos": 4546,
      "ĠâĻª": 4547,
      "Ġtor": 4548,
      "Ġaleg": 4549,
      "enas": 4550,
      "Ġdream": 4551,
      "Ġpad": 4552,
      "ares": 4553,
      "ania": 4554,
      "Ġmess": 4555,
      "oub": 4556,
      "elas": 4557,
      "Ġbed": 4558,
      "Ġbank": 4559,
      "Ġnerv": 4560,
      "Ġquite": 4561,
      "Ġenfor": 4562,
      "eto": 4563,
      "ĠSyr": 4564,
      "Ġalto": 4565,
      "Ġforg": 4566,
      "ĠMundial": 4567,
      "Ġcomen": 4568,
      "Ġestaban": 4569,
      "Ġloco": 4570,
      "Ġrules": 4571,
      "ĠDiv": 4572,
      "estic": 4573,
      "Ġpromet": 4574,
      "Esper": 4575,
      "Escu": 4576,
      "ugust": 4577,
      "Ġconditions": 4578,
      "Ġpromot": 4579,
      "Ġpromover": 4580,
      "Ġesposa": 4581,
      "ÃŃculos": 4582,
      "ĠProm": 4583,
      "Ġadditional": 4584,
      "Ġnuestros": 4585,
      "cepto": 4586,
      "Ġinvolved": 4587,
      "Ġoportunidad": 4588,
      "After": 4589,
      "apporteur": 4590,
      "Ġanexo": 4591,
      "Because": 4592,
      "CB": 4593,
      "DC": 4594,
      "Give": 4595,
      "Oye": 4596,
      "cot": 4597,
      "oce": 4598,
      "pero": 4599,
      "ria": 4600,
      "Ġ..": 4601,
      "Ġtou": 4602,
      "Ġtur": 4603,
      "ince": 4604,
      "Ġsend": 4605,
      "Ġdeta": 4606,
      "aran": 4607,
      "ators": 4608,
      "ciÃ³": 4609,
      "Ġhate": 4610,
      "Ġhuh": 4611,
      "itch": 4612,
      "itud": 4613,
      "Ġrevis": 4614,
      "Ġvent": 4615,
      "Ġeither": 4616,
      "ĠAre": 4617,
      "mento": 4618,
      "ĠDar": 4619,
      "Ġ100": 4620,
      "ĠBel": 4621,
      "ĠLas": 4622,
      "Ġdesc": 4623,
      "Ġdescrib": 4624,
      "encion": 4625,
      "aja": 4626,
      "ĠcompaÃ±": 4627,
      "ĠWomen": 4628,
      "uced": 4629,
      "Ġconsid": 4630,
      "Ġcarta": 4631,
      "Ġpolicies": 4632,
      "ĠpasÃ³": 4633,
      "Ġmarcha": 4634,
      "Ġmarried": 4635,
      "ĠCharl": 4636,
      "Ġ2005": 4637,
      "Ġexpect": 4638,
      "angre": 4639,
      "Ġdiffic": 4640,
      "Ġprotect": 4641,
      "Ġvenir": 4642,
      "ĠCoordin": 4643,
      "Ġobjetivos": 4644,
      "Ġaddressed": 4645,
      "Ġdistin": 4646,
      "Ġregionales": 4647,
      "Ġhonor": 4648,
      "Ġempleo": 4649,
      "Ġevidence": 4650,
      "Ġempez": 4651,
      "Ġriesgo": 4652,
      "Ġpobreza": 4653,
      "Ġesfuerzos": 4654,
      "Ġdifficult": 4655,
      "CE": 4656,
      "now": 4657,
      "uk": 4658,
      "Ã¼": 4659,
      "enal": 4660,
      "Ġpan": 4661,
      "Ġpoverty": 4662,
      "Ġcity": 4663,
      "Ġcoup": 4664,
      "Ġcrazy": 4665,
      "Ġmort": 4666,
      "Ġmine": 4667,
      "atory": 4668,
      "oud": 4669,
      "Ġhum": 4670,
      "Ġhost": 4671,
      "icen": 4672,
      "ung": 4673,
      "Ġtowards": 4674,
      "Ġescr": 4675,
      "idd": 4676,
      "lex": 4677,
      "Ã¡f": 4678,
      "imens": 4679,
      "ĠAh": 4680,
      "Ġforget": 4681,
      "ĠMart": 4682,
      "Ġcomet": 4683,
      "Ġhago": 4684,
      "ĠDef": 4685,
      "Ġassoci": 4686,
      "lock": 4687,
      "ĠTerr": 4688,
      "ĠNueva": 4689,
      "andon": 4690,
      "Ġabove": 4691,
      "Ġcuanto": 4692,
      "Ġadel": 4693,
      "ablemente": 4694,
      "Ġcarry": 4695,
      "Ġindustr": 4696,
      "ĠChina": 4697,
      "ĠChild": 4698,
      "Ġgotta": 4699,
      "Ġmatr": 4700,
      "Ġthinking": 4701,
      "uba": 4702,
      "Ġsubmitted": 4703,
      "Ġopportun": 4704,
      "Ġprimero": 4705,
      "Ġllevar": 4706,
      "Ġbuscar": 4707,
      "Ġtomorrow": 4708,
      "Ġhijos": 4709,
      "Ġeran": 4710,
      "Ġespecially": 4711,
      "Ġresponsible": 4712,
      "ĠmayorÃŃa": 4713,
      "Ġobjeto": 4714,
      "Ġstrategy": 4715,
      "ĠEconomic": 4716,
      "Ġdisposiciones": 4717,
      "Ġseveral": 4718,
      "Ġacerca": 4719,
      "ocrÃ¡tica": 4720,
      "Ġdialogue": 4721,
      "):": 4722,
      "Fin": 4723,
      "dom": 4724,
      "ĠQuÃ©": 4725,
      "Ġtecn": 4726,
      "eraciÃ³n": 4727,
      "Ġside": 4728,
      "Ġmens": 4729,
      "reen": 4730,
      "ising": 4731,
      "eda": 4732,
      "Ġflo": 4733,
      "Ġoficial": 4734,
      "Ġoficina": 4735,
      "ĠII": 4736,
      "Ã©l": 4737,
      "Ġtrust": 4738,
      "Ġtrade": 4739,
      "antas": 4740,
      "Ġ2000": 4741,
      "izing": 4742,
      "Ġjefe": 4743,
      "ford": 4744,
      "Ġfront": 4745,
      "Ġapro": 4746,
      "Ġaccept": 4747,
      "Ġtuv": 4748,
      "Ġdebate": 4749,
      "Ġsupuesto": 4750,
      "ĠsabÃŃa": 4751,
      "ĠdiÃ¡logo": 4752,
      "Ġclos": 4753,
      "Ġlooks": 4754,
      "ĠSecretariat": 4755,
      "Ġcaball": 4756,
      "Ġrefl": 4757,
      "Ġterrible": 4758,
      "Ġconsideration": 4759,
      "Ġhija": 4760,
      "atorio": 4761,
      "Ġprincipio": 4762,
      "Ġprincipales": 4763,
      "Ġespera": 4764,
      "ĠCooper": 4765,
      "Ġincreased": 4766,
      "ĠDeclar": 4767,
      "Ġboys": 4768,
      "Ġstarted": 4769,
      "www": 4770,
      "Ġhubiera": 4771,
      "Ġkids": 4772,
      "ĠÃģfrica": 4773,
      "Ġiniciativas": 4774,
      "DespuÃ©s": 4775,
      "ĠrÃ¡pido": 4776,
      "Ġappropriate": 4777,
      "Ġpertinentes": 4778,
      "Neces": 4779,
      "Solo": 4780,
      "date": 4781,
      "gy": 4782,
      "ijo": 4783,
      "vest": 4784,
      "ĠThere": 4785,
      "Ġaim": 4786,
      "arnos": 4787,
      "entemente": 4788,
      "Ġbat": 4789,
      "Ġbra": 4790,
      "ĠbÃ¡s": 4791,
      "Ġbody": 4792,
      "Ġnet": 4793,
      "ĠSer": 4794,
      "ĠSub": 4795,
      "ĠAff": 4796,
      "ĠAugust": 4797,
      "Ġtried": 4798,
      "ĠGet": 4799,
      "ĠGood": 4800,
      "ĠHigh": 4801,
      "Ġcuidado": 4802,
      "Ġcompre": 4803,
      "Esa": 4804,
      "Estamos": 4805,
      "ĠKing": 4806,
      "Ġrelativas": 4807,
      "Ġmatters": 4808,
      "earch": 4809,
      "Ġ55": 4810,
      "Ġrole": 4811,
      "ĠAsia": 4812,
      "Ġsubst": 4813,
      "rench": 4814,
      "Ġservicio": 4815,
      "Ġcorrup": 4816,
      "Ġplanes": 4817,
      "prise": 4818,
      "Ġorganization": 4819,
      "Ġespec": 4820,
      "Ġvoluntar": 4821,
      "Ġdocumentos": 4822,
      "Ġmorir": 4823,
      "Ġmandato": 4824,
      "Ġlevels": 4825,
      "Ġreconoci": 4826,
      "Ġblood": 4827,
      "ozco": 4828,
      "According": 4829,
      "Ġhumanitarian": 4830,
      "Perd": 4831,
      "Ġpalabra": 4832,
      "Ġradio": 4833,
      "44": 4834,
      "53": 4835,
      "Ay": 4836,
      "Pens": 4837,
      "haps": 4838,
      "Ġluck": 4839,
      "Ġpier": 4840,
      "Ġpict": 4841,
      "osiciÃ³n": 4842,
      "ĠmÃŃo": 4843,
      "edor": 4844,
      "Ġfem": 4845,
      "ÃŃg": 4846,
      "Ġgame": 4847,
      "ĠIN": 4848,
      "etr": 4849,
      "Ġalleg": 4850,
      "Ġaliment": 4851,
      "ĠAf": 4852,
      "tera": 4853,
      "ĠMIN": 4854,
      "Ġtrue": 4855,
      "ĠTom": 4856,
      "Ġaren": 4857,
      "Ġarch": 4858,
      "ĠallÃ¡": 4859,
      "ĠhabitaciÃ³n": 4860,
      "Ġregistr": 4861,
      "Ġoutside": 4862,
      "egal": 4863,
      "Ġpaso": 4864,
      "Ġcrime": 4865,
      "iano": 4866,
      "ĠpodÃŃa": 4867,
      "Ġinvit": 4868,
      "Ġmayo": 4869,
      "Ġexplic": 4870,
      "Ġsubs": 4871,
      "Ġcorr": 4872,
      "Ġrequired": 4873,
      "Ġoperations": 4874,
      "Ġdrug": 4875,
      "Ġdejar": 4876,
      "ross": 4877,
      "Ġprocedure": 4878,
      "ĠdeclaraciÃ³n": 4879,
      "Ġdiscrimination": 4880,
      "Ġprobably": 4881,
      "Ġprojects": 4882,
      "Ġpromote": 4883,
      "Ġadoptar": 4884,
      "Ġcouple": 4885,
      "ĠAffairs": 4886,
      "Dr": 4887,
      "Would": 4888,
      "building": 4889,
      "cement": 4890,
      "des": 4891,
      "nal": 4892,
      "uido": 4893,
      "Ġide": 4894,
      "Ġaunque": 4895,
      "esor": 4896,
      "Ġlic": 4897,
      "arter": 4898,
      "Ġhom": 4899,
      "ĠharÃ©": 4900,
      "adamente": 4901,
      "Ġbill": 4902,
      "icamente": 4903,
      "Ġoften": 4904,
      "Ġanterior": 4905,
      "Ã¡tico": 4906,
      "abr": 4907,
      "ols": 4908,
      "olution": 4909,
      "Ġeh": 4910,
      "Thank": 4911,
      "ĠAut": 4912,
      "Ġestim": 4913,
      "Ġexample": 4914,
      "izÃ¡s": 4915,
      "illas": 4916,
      "Ġarbit": 4917,
      "ĠcuÃ¡n": 4918,
      "ĠacciÃ³n": 4919,
      "ĠCont": 4920,
      "laz": 4921,
      "Ġcrees": 4922,
      "ption": 4923,
      "ĠChair": 4924,
      "Ġsupposed": 4925,
      "See": 4926,
      "Ġminor": 4927,
      "Ġroad": 4928,
      "ĠsegÃºn": 4929,
      "Ġvolv": 4930,
      "Ġparticipation": 4931,
      "Ġsociales": 4932,
      "ĠWho": 4933,
      "Ġencoura": 4934,
      "Ġprovision": 4935,
      "Ġprovisions": 4936,
      "Ġissue": 4937,
      "Ġprivate": 4938,
      "Ġcombat": 4939,
      "ĠCriminal": 4940,
      "Ġdiferentes": 4941,
      "Ġcurrent": 4942,
      "Ġgrowth": 4943,
      "Ġhotel": 4944,
      "Ġsolicitud": 4945,
      "Ġviejo": 4946,
      "ĠcorazÃ³n": 4947,
      "Hello": 4948,
      "Sal": 4949,
      "TH": 4950,
      "hold": 4951,
      "nie": 4952,
      "Ġtax": 4953,
      "eness": 4954,
      "Ġdio": 4955,
      "Ġsel": 4956,
      "Ġlady": 4957,
      "Ġpain": 4958,
      "Ġcit": 4959,
      "Ġmit": 4960,
      "remos": 4961,
      "Ġhig": 4962,
      "Ġfondos": 4963,
      "Ġinfr": 4964,
      "ÃŃm": 4965,
      "Ġgentle": 4966,
      "Ġvin": 4967,
      "ota": 4968,
      "Ġhair": 4969,
      "Ġtrad": 4970,
      "iber": 4971,
      "ĠRapporteur": 4972,
      "ĠBl": 4973,
      "ĠHola": 4974,
      "Ġlejos": 4975,
      "Ġleaving": 4976,
      "oples": 4977,
      "Ġshort": 4978,
      "nder": 4979,
      "Ġweapons": 4980,
      "Ġserio": 4981,
      "Ġplans": 4982,
      "Ġamen": 4983,
      "Ġagentes": 4984,
      "Ġcross": 4985,
      "iÃ³s": 4986,
      "Ġinstr": 4987,
      "Ġclass": 4988,
      "Ġcentr": 4989,
      "Ġinside": 4990,
      "Ġoperaciones": 4991,
      "Ġfuerza": 4992,
      "Ġcalidad": 4993,
      "Ġsignifica": 4994,
      "Ġlonger": 4995,
      "Ġpensar": 4996,
      "Ġsystems": 4997,
      "Ġincrease": 4998,
      "ÃŃnea": 4999,
      "Ġpatr": 5000,
      "Ġgrandes": 5001,
      "Ġjoven": 5002,
      "ĠcoordinaciÃ³n": 5003,
      "Ġlegislation": 5004,
      "Ġregarding": 5005,
      "Ġincluso": 5006,
      "Ġtemas": 5007,
      "Ġlarge": 5008,
      "Ġbehind": 5009,
      "ĠPermanente": 5010,
      "Ġolvid": 5011,
      "Ġconseguir": 5012,
      "Ġchalleng": 5013,
      "Ġshoot": 5014,
      "Ġenjoy": 5015,
      "Cap": 5016,
      "Gu": 5017,
      "MIS": 5018,
      "Tal": 5019,
      "tp": 5020,
      "tado": 5021,
      "ties": 5022,
      "ĠtÃŃo": 5023,
      "Ġtierra": 5024,
      "Ġder": 5025,
      "Ġsister": 5026,
      "Ġsangre": 5027,
      "Ġfa": 5028,
      "Ġba": 5029,
      "Ġband": 5030,
      "icar": 5031,
      "uno": 5032,
      "Ġenv": 5033,
      "Ġenfr": 5034,
      "Ġreh": 5035,
      "Ã¡c": 5036,
      "Ġviene": 5037,
      "oluciÃ³n": 5038,
      "ĠCivil": 5039,
      "Ġsean": 5040,
      "Ġproceed": 5041,
      "ĠPop": 5042,
      "ĠEso": 5043,
      "Ġraci": 5044,
      "izada": 5045,
      "keep": 5046,
      "sequ": 5047,
      "Ġdesar": 5048,
      "iesta": 5049,
      "erson": 5050,
      "Ġchicos": 5051,
      "Ġstory": 5052,
      "Ġstuff": 5053,
      "ĠConven": 5054,
      "ĠConstitu": 5055,
      "Ġrecuer": 5056,
      "Ġprestar": 5057,
      "Ġanybody": 5058,
      "Ġmedida": 5059,
      "iana": 5060,
      "Ġdiab": 5061,
      "Ġposition": 5062,
      "Ġ68": 5063,
      "iedad": 5064,
      "Ġneeded": 5065,
      "Ġcentral": 5066,
      "Ġdemand": 5067,
      "Ġcommon": 5068,
      "Ġexpert": 5069,
      "Ġesperando": 5070,
      "Ġestablecer": 5071,
      "ĠâĢĵ": 5072,
      "Ġespecialmente": 5073,
      "Ġprocedures": 5074,
      "Ġproductos": 5075,
      "Ġmantener": 5076,
      "Ġobjetivo": 5077,
      "Ġquestions": 5078,
      "ĠcomunicaciÃ³n": 5079,
      "Ġconocer": 5080,
      "ĠmÃ©dico": 5081,
      "Ġassessment": 5082,
      "ĠPanel": 5083,
      "Ġestrategia": 5084,
      "Del": 5085,
      "Sub": 5086,
      "fin": 5087,
      "gel": 5088,
      "Ġale": 5089,
      "Ġthird": 5090,
      "Ġmer": 5091,
      "ature": 5092,
      "Ġfreedom": 5093,
      "ombr": 5094,
      "Ġenh": 5095,
      "ĠIT": 5096,
      "ĠCal": 5097,
      "ĠSa": 5098,
      "Ġalcan": 5099,
      "aca": 5100,
      "acult": 5101,
      "ĠMad": 5102,
      "ĠParl": 5103,
      "Ġestad": 5104,
      "ĠEqu": 5105,
      "ĠEast": 5106,
      "Ġhaga": 5107,
      "Ġtruth": 5108,
      "ĠBur": 5109,
      "Ġresum": 5110,
      "raft": 5111,
      "atever": 5112,
      "ĠFrench": 5113,
      "grad": 5114,
      "Ġcuad": 5115,
      "Ġdisap": 5116,
      "Ġagreed": 5117,
      "Ġmanos": 5118,
      "Ġsiquiera": 5119,
      "Ġcarr": 5120,
      "Ġobt": 5121,
      "Ġgets": 5122,
      "Ġcred": 5123,
      "Deber": 5124,
      "Ġdied": 5125,
      "Ġfirm": 5126,
      "ĠpresentaciÃ³n": 5127,
      "ĠproducciÃ³n": 5128,
      "Ġterms": 5129,
      "ĠcapacitaciÃ³n": 5130,
      "Ġresultado": 5131,
      "Ġwrit": 5132,
      "Ġblack": 5133,
      "Ġcomunidad": 5134,
      "Ġcourt": 5135,
      "2009": 5136,
      "Ġinfl": 5137,
      "Ġfinancieros": 5138,
      "Ġstatement": 5139,
      "Ġembar": 5140,
      "ĠÃºltima": 5141,
      "Ġdispon": 5142,
      "Ġdomestic": 5143,
      "Ġgovern": 5144,
      "Ġpractice": 5145,
      "ĠDoctor": 5146,
      "Ġigualdad": 5147,
      "Ġearly": 5148,
      "ĠFederal": 5149,
      "ĠprÃ¡cticas": 5150,
      "ĠPaul": 5151,
      "Ġgrave": 5152,
      "Ġencarg": 5153,
      "ĠDepartment": 5154,
      "Ġfully": 5155,
      "ĠfÃ¡cil": 5156,
      "ĠperiÃ³d": 5157,
      "Ġpadres": 5158,
      "Ġdesarroll": 5159,
      "//": 5160,
      "://": 5161,
      "Cor": 5162,
      "Claro": 5163,
      "Durante": 5164,
      "ION": 5165,
      "LE": 5166,
      "RE": 5167,
      "Tom": 5168,
      "bamos": 5169,
      "tamente": 5170,
      "visiÃ³n": 5171,
      "yl": 5172,
      "Ġech": 5173,
      "Ġtele": 5174,
      "esa": 5175,
      "onia": 5176,
      "Ġsick": 5177,
      "Ġthreat": 5178,
      "oul": 5179,
      "ises": 5180,
      "enty": 5181,
      "Ġfom": 5182,
      "icult": 5183,
      "amen": 5184,
      "amientos": 5185,
      "....": 5186,
      "sta": 5187,
      "Ã¡cul": 5188,
      "Ġvill": 5189,
      "Ġnoches": 5190,
      "irth": 5191,
      "ĠMich": 5192,
      "...?": 5193,
      "Ġrate": 5194,
      "ĠDE": 5195,
      "ustral": 5196,
      "istan": 5197,
      "Ġreserv": 5198,
      "ĠFondo": 5199,
      "ĠON": 5200,
      "Ġcuent": 5201,
      "Ġacus": 5202,
      "ĠJes": 5203,
      "Ġknown": 5204,
      "ĠInter": 5205,
      "Ġcoche": 5206,
      "ĠVen": 5207,
      "mail": 5208,
      "Ġhacen": 5209,
      "Ġworkers": 5210,
      "Ġproposed": 5211,
      "gundo": 5212,
      "2012": 5213,
      "ĠEsp": 5214,
      "Ġconsidered": 5215,
      "ĠIsland": 5216,
      "Ġterm": 5217,
      "Ġdocuments": 5218,
      "Ġsentido": 5219,
      "Ġwrite": 5220,
      "Ġproduction": 5221,
      "ĠestratÃ©g": 5222,
      "Ġstatus": 5223,
      "ĠEduc": 5224,
      "Ġcirc": 5225,
      "ĠprÃ¡ctica": 5226,
      "ĠeconÃ³mico": 5227,
      "ĠDemocrÃ¡tica": 5228,
      "Ġorganismos": 5229,
      "ĠProtocolo": 5230,
      "Ġlangu": 5231,
      "Ġgolpe": 5232,
      "Ġcandid": 5233,
      "Ġgastos": 5234,
      "ĠSyrian": 5235,
      "Ġcomprehensive": 5236,
      "63": 5237,
      "70": 5238,
      "CH": 5239,
      "Cons": 5240,
      "Nada": 5241,
      "VE": 5242,
      "ham": 5243,
      "iaciÃ³n": 5244,
      "Âª": 5245,
      "esiÃ³n": 5246,
      "onos": 5247,
      "Ġsell": 5248,
      "ĠlÃŃnea": 5249,
      "Ġpurs": 5250,
      "ĠpÃºblica": 5251,
      "Ġcoc": 5252,
      "arles": 5253,
      "atr": 5254,
      "Ġfiesta": 5255,
      "Ã³s": 5256,
      "ecta": 5257,
      "eting": 5258,
      "Ġpare": 5259,
      "Ġformas": 5260,
      "Ġcommitted": 5261,
      "Ġdelito": 5262,
      "icipar": 5263,
      "Ġasuntos": 5264,
      "estos": 5265,
      "Ġexcept": 5266,
      "key": 5267,
      "iernos": 5268,
      "Ġjuego": 5269,
      "istics": 5270,
      "Ġrestr": 5271,
      "ops": 5272,
      "encial": 5273,
      "Ġcuar": 5274,
      "Ġacuer": 5275,
      "ĠJack": 5276,
      "ĠCommun": 5277,
      "Ġadicion": 5278,
      "Ġmanif": 5279,
      "Ġcast": 5280,
      "ĠInsp": 5281,
      "ught": 5282,
      "Ġmission": 5283,
      "ĠindÃŃgenas": 5284,
      "nov": 5285,
      "Ġdebo": 5286,
      "Ġintel": 5287,
      "Ġreducir": 5288,
      "Ġimplemented": 5289,
      "arling": 5290,
      "Ġciviles": 5291,
      "Ġesperar": 5292,
      "Ġqueda": 5293,
      "Ġprocedimientos": 5294,
      "Article": 5295,
      "Ġsuperior": 5296,
      "Ġentrar": 5297,
      "Ġhermana": 5298,
      "Ġfuncionarios": 5299,
      "Ġfoto": 5300,
      "Ġfuturo": 5301,
      "glish": 5302,
      "PodrÃŃa": 5303,
      "Ġapplication": 5304,
      "Ġspecific": 5305,
      "Ġequipment": 5306,
      "Ġperfect": 5307,
      "Ġlucha": 5308,
      "Ġsuccess": 5309,
      "Ġmonitoring": 5310,
      "ArtÃŃculo": 5311,
      "-Â¡": 5312,
      "48": 5313,
      "58": 5314,
      "MÃ¡s": 5315,
      "Ve": 5316,
      "Wait": 5317,
      "lin": 5318,
      "pen": 5319,
      "wo": 5320,
      "Ġswe": 5321,
      "Ġpie": 5322,
      "Ġcerr": 5323,
      "Ġopt": 5324,
      "Ġbuilding": 5325,
      "Ġnave": 5326,
      "icaciÃ³n": 5327,
      "Ġelev": 5328,
      "Ġconvert": 5329,
      "ĠCu": 5330,
      "ĠSala": 5331,
      "Ġsegundo": 5332,
      "Ġsue": 5333,
      "Ġsugg": 5334,
      "ulta": 5335,
      "uso": 5336,
      "Ġpersp": 5337,
      "ĠGlobal": 5338,
      "izado": 5339,
      "Ġjug": 5340,
      "raq": 5341,
      "ĠNe": 5342,
      "ĠHol": 5343,
      "Ġfranc": 5344,
      "Ġapar": 5345,
      "Ġchicas": 5346,
      "Ġabog": 5347,
      "QuizÃ¡": 5348,
      "Ġplant": 5349,
      "ipp": 5350,
      "Ġadap": 5351,
      "Ġpress": 5352,
      "Ġtherefore": 5353,
      "Ġmedical": 5354,
      "âĢ¢": 5355,
      "Ġ45": 5356,
      "Ġ67": 5357,
      "ney": 5358,
      "Ġcold": 5359,
      "ĠformaciÃ³n": 5360,
      "ĠHey": 5361,
      "ĠPrinci": 5362,
      "Ġfuerte": 5363,
      "ĠSeÃ±or": 5364,
      "Ġproviding": 5365,
      "Ġbarr": 5366,
      "Ġconcerning": 5367,
      "Ġarrang": 5368,
      "Ġmandate": 5369,
      "Ġconsultations": 5370,
      "ICEF": 5371,
      "Ġpueblos": 5372,
      "ĠÃģr": 5373,
      "From": 5374,
      "Ġcurrently": 5375,
      "Ġnormal": 5376,
      "Ġenergy": 5377,
      "Ġlograr": 5378,
      "Ġobstante": 5379,
      "Ġpalabras": 5380,
      "Ġconducted": 5381,
      "Ġnuevos": 5382,
      "Ġfucking": 5383,
      "Ġsafe": 5384,
      "Ġejerci": 5385,
      "ĠÃ³rgan": 5386,
      "ĠEjecut": 5387,
      "Ġincorpor": 5388,
      "Ġdetail": 5389,
      "ĠConvenio": 5390,
      "Ġsuggest": 5391,
      "Ag": 5392,
      "CA": 5393,
      "Os": 5394,
      "Vol": 5395,
      "ees": 5396,
      "lÃ¡": 5397,
      "ych": 5398,
      "ĠÂ": 5399,
      "Ġaire": 5400,
      "Ġdanger": 5401,
      "Ġple": 5402,
      "ancy": 5403,
      "elines": 5404,
      "Ġyeah": 5405,
      "Ġbes": 5406,
      "Ġbail": 5407,
      "Ġinde": 5408,
      "rown": 5409,
      "Ġenfo": 5410,
      "ĠIf": 5411,
      "Ã©ase": 5412,
      "urg": 5413,
      "Ġproc": 5414,
      "ĠMaj": 5415,
      "estar": 5416,
      "ĠRed": 5417,
      "iers": 5418,
      "rag": 5419,
      "Ġshit": 5420,
      "ĠOf": 5421,
      "Ġaccid": 5422,
      "Quiere": 5423,
      "Ġprevis": 5424,
      "ĠComp": 5425,
      "Ġcompany": 5426,
      "Ġpartir": 5427,
      "Ġparticipar": 5428,
      "aven": 5429,
      "ĠhabrÃŃa": 5430,
      "Ġconsecu": 5431,
      "ĠcreaciÃ³n": 5432,
      "ĠniÃ±as": 5433,
      "Ġpaid": 5434,
      "Ġsegura": 5435,
      "Ġsentir": 5436,
      "Ġprincipios": 5437,
      "Ġvenido": 5438,
      "Ġauthority": 5439,
      "Puedes": 5440,
      "Ġdaughter": 5441,
      "Ġdecisiones": 5442,
      "Ġconflictos": 5443,
      "ĠAction": 5444,
      "centr": 5445,
      "Ġhablando": 5446,
      "Ġarreglo": 5447,
      "ĠPermanent": 5448,
      "Ġexpressed": 5449,
      "Ã³digo": 5450,
      "Ġresponse": 5451,
      "iddle": 5452,
      ".,": 5453,
      "36": 5454,
      "bel": 5455,
      "jero": 5456,
      "wing": 5457,
      "xico": 5458,
      "ĠdÃ©": 5459,
      "Ġlat": 5460,
      "Ġcust": 5461,
      "Ġdetr": 5462,
      "osh": 5463,
      "osto": 5464,
      "Ġmencion": 5465,
      "istros": 5466,
      "Ġwit": 5467,
      "Ġbon": 5468,
      "omas": 5469,
      "Ġannex": 5470,
      "Ġrein": 5471,
      "Ġrecl": 5472,
      "Ġconci": 5473,
      "ilo": 5474,
      "ility": 5475,
      "Ġunas": 5476,
      "Ġvest": 5477,
      "ĠCentro": 5478,
      "ĠSol": 5479,
      "Ġseis": 5480,
      "irit": 5481,
      "Ġalred": 5482,
      "dow": 5483,
      "ienen": 5484,
      "ĠDan": 5485,
      "Ġtranquil": 5486,
      "ift": 5487,
      "istÃ¡n": 5488,
      "ĠNiger": 5489,
      "Ġwaste": 5490,
      "aged": 5491,
      "Ġcannot": 5492,
      "Ġinterpre": 5493,
      "ĠUna": 5494,
      "Ġconsist": 5495,
      "Ġcargo": 5496,
      "ĠcarÃ¡c": 5497,
      "action": 5498,
      "Ġcrecimiento": 5499,
      "Ġrelativa": 5500,
      "Ġindigenous": 5501,
      "Ġrealidad": 5502,
      "Ġsola": 5503,
      "Ġdebido": 5504,
      "Ġinstal": 5505,
      "Ġpropia": 5506,
      "Ġtransporte": 5507,
      "ĠYour": 5508,
      "Ġnecesita": 5509,
      "pped": 5510,
      "ĠfunciÃ³n": 5511,
      "Ġhowever": 5512,
      "Ġeveryone": 5513,
      "Ġeverybody": 5514,
      "Ġaplicar": 5515,
      "ĠExecutive": 5516,
      "Ġdiscus": 5517,
      "Ġresults": 5518,
      "ĠpolÃŃticos": 5519,
      "Ġfunding": 5520,
      "ĠâĢĶ": 5521,
      "Ġresponsabilidad": 5522,
      "Ġsistemas": 5523,
      "Ġescap": 5524,
      "Ġescuela": 5525,
      "Ġarmados": 5526,
      "ledge": 5527,
      "Ġfigur": 5528,
      "Ġnegot": 5529,
      "Ġfeliz": 5530,
      "ĠpequeÃ±o": 5531,
      "Ġwords": 5532,
      "ĠPeople": 5533,
      "ĠdirecciÃ³n": 5534,
      "Ġglad": 5535,
      "Ġenvironmental": 5536,
      "Ġtarget": 5537,
      "ĠCentral": 5538,
      "ĠAmerica": 5539,
      "Parece": 5540,
      "Ġmantenimiento": 5541,
      "ĠPalest": 5542,
      "Ġtipos": 5543,
      "ĠcarÃ¡cter": 5544,
      "OL": 5545,
      "PR": 5546,
      "Tra": 5547,
      "Uno": 5548,
      "ael": 5549,
      "bor": 5550,
      "dam": 5551,
      "dict": 5552,
      "has": 5553,
      "iament": 5554,
      "pres": 5555,
      "set": 5556,
      "uera": 5557,
      "ze": 5558,
      "Ġdad": 5559,
      "Ġlives": 5560,
      "Ġpid": 5561,
      "Ġcart": 5562,
      "Ġthough": 5563,
      "Ġmob": 5564,
      "Ġhice": 5565,
      "Ġban": 5566,
      "eca": 5567,
      "Ġgod": 5568,
      "Ġremo": 5569,
      "Ġconcre": 5570,
      "ĠIraq": 5571,
      "empe": 5572,
      "Ġvot": 5573,
      "olÃ³g": 5574,
      "iencia": 5575,
      "Ġren": 5576,
      "icidad": 5577,
      "see": 5578,
      "ending": 5579,
      "Ġdesempe": 5580,
      "Ġdisabilities": 5581,
      "ĠComun": 5582,
      "Ġagencies": 5583,
      "Ġteach": 5584,
      "Ġcareful": 5585,
      "Ġ38": 5586,
      "Ġcreer": 5587,
      "ĠsoluciÃ³n": 5588,
      "Ġcriter": 5589,
      "para": 5590,
      "ĠAsuntos": 5591,
      "Ġemployment": 5592,
      "Ġequality": 5593,
      "Ġmald": 5594,
      "Ġliber": 5595,
      "ĠReport": 5596,
      "cidos": 5597,
      "Ġparticularly": 5598,
      "Ã©rica": 5599,
      "Ġdetention": 5600,
      "Ġdestro": 5601,
      "Ġvuelta": 5602,
      "Ġphone": 5603,
      "ĠdelegaciÃ³n": 5604,
      "Ġjoint": 5605,
      "Ġpenal": 5606,
      "Ã¡mb": 5607,
      "Ġextran": 5608,
      "Ġrequested": 5609,
      "ĠRoom": 5610,
      "Ġprueba": 5611,
      "Ġviaje": 5612,
      "Ġespeciales": 5613,
      "Ġeasy": 5614,
      "Ġcuerpo": 5615,
      "Ġinstrumentos": 5616,
      "Ġingresos": 5617,
      "Ġdesapare": 5618,
      "Ġclean": 5619,
      "Ġcategor": 5620,
      "Ġchallenges": 5621,
      "35": 5622,
      "CI": 5623,
      "Dios": 5624,
      "Listen": 5625,
      "More": 5626,
      "__": 5627,
      "cuse": 5628,
      "gn": 5629,
      "light": 5630,
      "ĠÃ¡r": 5631,
      "Ġtir": 5632,
      "Ġtable": 5633,
      "Ġdimens": 5634,
      "Ġsort": 5635,
      "Ġsound": 5636,
      "Ġpi": 5637,
      "Ġcier": 5638,
      "Ġcert": 5639,
      "Ġcatch": 5640,
      "Ġdeten": 5641,
      "Ġment": 5642,
      "ĠmÃºs": 5643,
      "atado": 5644,
      "cient": 5645,
      "elos": 5646,
      "Ġinvers": 5647,
      "uniÃ³n": 5648,
      "rog": 5649,
      "Ġellas": 5650,
      "Ġconvers": 5651,
      "ila": 5652,
      "imismo": 5653,
      "Ġvend": 5654,
      "igue": 5655,
      "rest": 5656,
      "ivamente": 5657,
      "ĠSw": 5658,
      "Ġefic": 5659,
      "Ġsum": 5660,
      "Ġparents": 5661,
      "Ġprol": 5662,
      "ĠMs": 5663,
      "ows": 5664,
      "ots": 5665,
      "esty": 5666,
      "ibr": 5667,
      "ierda": 5668,
      "ections": 5669,
      "ĠBol": 5670,
      "ĠTur": 5671,
      "ĠNow": 5672,
      "Ġgobern": 5673,
      "ĠOper": 5674,
      "Ġnotes": 5675,
      "Ġabandon": 5676,
      "agg": 5677,
      "Ġamount": 5678,
      "Ġentit": 5679,
      "Ġrecup": 5680,
      "Ġusar": 5681,
      "Ġhimself": 5682,
      "Ġ34": 5683,
      "Ġrelating": 5684,
      "Ġprovoc": 5685,
      "Ġhumano": 5686,
      "Ġ2001": 5687,
      "ĠProt": 5688,
      "Ġmejores": 5689,
      "Ġimportantes": 5690,
      "uela": 5691,
      "Ġpromise": 5692,
      "miss": 5693,
      "Ġlibro": 5694,
      "Ġcaf": 5695,
      "ĠEuropa": 5696,
      "Ġexpertos": 5697,
      "Ġfunds": 5698,
      "Ġquerida": 5699,
      "Ġcambiar": 5700,
      "ĠGovern": 5701,
      "Ġveh": 5702,
      "Ġprepared": 5703,
      "Ġencant": 5704,
      "Ġvuelto": 5705,
      "ĠPolic": 5706,
      "Ġdelegation": 5707,
      "Ã¡lisis": 5708,
      "Ġstrategic": 5709,
      "Ġbenefici": 5710,
      "Ġvictim": 5711,
      "ÃŃfico": 5712,
      "Ġlocales": 5713,
      "Ġmagn": 5714,
      "OPS": 5715,
      "Ġcontext": 5716,
      "Ġannual": 5717,
      "ĠPhil": 5718,
      "Ġpruebas": 5719,
      "imonio": 5720,
      "Ġgobierno": 5721,
      "Ġcompromiso": 5722,
      "Ġperformance": 5723,
      "Entre": 5724,
      "riage": 5725,
      "Ġtouch": 5726,
      "ĠCharlie": 5727,
      "Ġhigher": 5728,
      "Ġejercicio": 5729,
      "31": 5730,
      "76": 5731,
      "Our": 5732,
      "Ver": 5733,
      "aign": 5734,
      "iamente": 5735,
      "val": 5736,
      "zer": 5737,
      "ĠÃ¡": 5738,
      "Ġacept": 5739,
      "Ġdoub": 5740,
      "Ġsed": 5741,
      "Ġsmo": 5742,
      "Ġscar": 5743,
      "Ġself": 5744,
      "Ġlisto": 5745,
      "Ġcort": 5746,
      "areness": 5747,
      "orry": 5748,
      "Ġmostr": 5749,
      "entar": 5750,
      "quir": 5751,
      "Ġquick": 5752,
      "Ġconfer": 5753,
      "Ã©f": 5754,
      "Ġvaya": 5755,
      "Ġprove": 5756,
      "Ġfore": 5757,
      "ĠPo": 5758,
      "Ġestuv": 5759,
      "loc": 5760,
      "Ġexci": 5761,
      "Ġexch": 5762,
      "ĠBen": 5763,
      "Ġdesper": 5764,
      "Ġstation": 5765,
      "Ġserie": 5766,
      "ĠademÃ¡s": 5767,
      "Ġadequ": 5768,
      "ĠWil": 5769,
      "Ġagosto": 5770,
      "Ġgrad": 5771,
      "Ġcrear": 5772,
      "ificado": 5773,
      "Ġclase": 5774,
      "Ġcentro": 5775,
      "Ġcentros": 5776,
      "visory": 5777,
      "Ġlleva": 5778,
      "Ġproduc": 5779,
      "Ġvalue": 5780,
      "Ġexaminar": 5781,
      "Ġincreasing": 5782,
      "Ġfacilities": 5783,
      "Ġnature": 5784,
      "Only": 5785,
      "Ġpregunta": 5786,
      "irecciÃ³n": 5787,
      "Ġestablecimiento": 5788,
      "Ġfigura": 5789,
      "Ġcomercio": 5790,
      "Ġfool": 5791,
      "ĠSupre": 5792,
      "glÃ©s": 5793,
      "ĠService": 5794,
      "Ġpedir": 5795,
      "Ġtreatment": 5796,
      "Ġitems": 5797,
      "ĠenergÃŃa": 5798,
      "Ġasociados": 5799,
      "Ġbastante": 5800,
      "ÃŃtulo": 5801,
      "Ġsignificant": 5802,
      "Ġrequirements": 5803,
      "Ġbodies": 5804,
      "Ġrelationship": 5805,
      "SegÃºn": 5806,
      "Ġcomenz": 5807,
      "Ġmitad": 5808,
      "45": 5809,
      "80": 5810,
      "Ed": 5811,
      "IR": 5812,
      "Like": 5813,
      "Much": 5814,
      "Ne": 5815,
      "OW": 5816,
      "Pe": 5817,
      "RA": 5818,
      "Somet": 5819,
      "eff": 5820,
      "gra": 5821,
      "iest": 5822,
      "iance": 5823,
      "king": 5824,
      "viv": 5825,
      "Ġcen": 5826,
      "Ġcad": 5827,
      "read": 5828,
      "Ġhid": 5829,
      "Ġhous": 5830,
      "Ġbirth": 5831,
      "Ġoficios": 5832,
      "Ġeleg": 5833,
      "ĠSur": 5834,
      "ĠSoci": 5835,
      "uten": 5836,
      "ĠMc": 5837,
      "ĠPara": 5838,
      "ĠDoc": 5839,
      "Ġasign": 5840,
      "Ġport": 5841,
      "izados": 5842,
      "iero": 5843,
      "ĠBob": 5844,
      "Ġresto": 5845,
      "Ġdog": 5846,
      "ander": 5847,
      "gov": 5848,
      "Ġshut": 5849,
      "iental": 5850,
      "llos": 5851,
      "Ġarms": 5852,
      "Ġcuales": 5853,
      "Ġweb": 5854,
      "Ġprevious": 5855,
      "alla": 5856,
      "ĠComm": 5857,
      "Ġcompart": 5858,
      "Ġentiendo": 5859,
      "Ġpuedan": 5860,
      "Ġmarav": 5861,
      "Ġrealizar": 5862,
      "ificult": 5863,
      "Ġsomebody": 5864,
      "ancias": 5865,
      "embro": 5866,
      "Ġcapt": 5867,
      "Ġresolutions": 5868,
      "ĠUNF": 5869,
      "Ġespacio": 5870,
      "Ġdemostr": 5871,
      "Ġllama": 5872,
      "ĠartÃŃculos": 5873,
      "Ġquerido": 5874,
      "Ġrepresentantes": 5875,
      "Ġllegado": 5876,
      "Ġdelegaciones": 5877,
      "ĠCarib": 5878,
      "Ġcoordination": 5879,
      "ĠlegislaciÃ³n": 5880,
      "Ġtechnology": 5881,
      "Ġterrorist": 5882,
      "Ġaumento": 5883,
      "Ġinterested": 5884,
      "Ġleaders": 5885,
      "Ã¡ndose": 5886,
      "Ġindividuals": 5887,
      "Ġuniversal": 5888,
      "Ġcontexto": 5889,
      "Ġwonderful": 5890,
      "Ġrelacionados": 5891,
      "Ġtype": 5892,
      "Ġprocesos": 5893,
      "Ġhorrible": 5894,
      "Ġdormir": 5895,
      "ĠdetrÃ¡s": 5896,
      "Ġwitness": 5897,
      "Further": 5898,
      "Hace": 5899,
      "cos": 5900,
      "iam": 5901,
      "ius": 5902,
      "ker": 5903,
      "Ġtill": 5904,
      "Ġdarling": 5905,
      "Ġdificult": 5906,
      "ining": 5907,
      "Ġsection": 5908,
      "ĠpÃ¡": 5909,
      "Ġpena": 5910,
      "Ġcig": 5911,
      "orar": 5912,
      "rew": 5913,
      "Ġflow": 5914,
      "Ġinnov": 5915,
      "undo": 5916,
      "ĠIS": 5917,
      "urance": 5918,
      "uta": 5919,
      "Ġfortal": 5920,
      "used": 5921,
      "apÃ¡": 5922,
      "Ġexclus": 5923,
      "ume": 5924,
      "ĠLond": 5925,
      "gover": 5926,
      "Ġorg": 5927,
      "Ġgoes": 5928,
      "Ġabord": 5929,
      "eph": 5930,
      "Ġprefer": 5931,
      "ĠWith": 5932,
      "Ġhabla": 5933,
      "Ġcarried": 5934,
      "ĠVI": 5935,
      "Ġtenga": 5936,
      "Ġmisiones": 5937,
      "ancis": 5938,
      "Ġplanning": 5939,
      "Ġfamilies": 5940,
      "Ġfamilias": 5941,
      "Ġmalo": 5942,
      "ĠSrta": 5943,
      "Comp": 5944,
      "Ġseguimiento": 5945,
      "Ġmunicip": 5946,
      "Ġefecto": 5947,
      "Ġresponsibility": 5948,
      "ĠWhen": 5949,
      "Ġnuestras": 5950,
      "ĠÃī": 5951,
      "Ġestruct": 5952,
      "ĠpreocupaciÃ³n": 5953,
      "ĠpelÃŃcul": 5954,
      "Ġindependent": 5955,
      "Ġcausa": 5956,
      "ĠtelÃ©f": 5957,
      "Ġdigas": 5958,
      "Ġaccording": 5959,
      "Ġperdido": 5960,
      "Ġcurso": 5961,
      "ĠatrÃ¡s": 5962,
      "Ġpiens": 5963,
      "ĠDepartamento": 5964,
      "Ġestablishment": 5965,
      "Ġpurpose": 5966,
      "SerÃ¡": 5967,
      "Ġpresupuesto": 5968,
      "Informe": 5969,
      "Ġagreement": 5970,
      "Ġbeginning": 5971,
      "CTAD": 5972,
      "ĠConstitution": 5973,
      "ĠConstituciÃ³n": 5974,
      "ustralia": 5975,
      ",...": 5976,
      "32": 5977,
      "Right": 5978,
      "bye": 5979,
      "based": 5980,
      "fort": 5981,
      "gue": 5982,
      "gress": 5983,
      "ĠQ": 5984,
      "ĠÃ¡mb": 5985,
      "Ġtour": 5986,
      "este": 5987,
      "Ġdated": 5988,
      "inario": 5989,
      "Ġsource": 5990,
      "Ġlimp": 5991,
      "Ġpil": 5992,
      "ared": 5993,
      "arch": 5994,
      "ret": 5995,
      "atal": 5996,
      "ĠoÃŃdo": 5997,
      "ĠinglÃ©s": 5998,
      "Ġoficiales": 5999,
      "ÃŃfic": 6000,
      "Ġconcept": 6001,
      "abes": 6002,
      "imb": 6003,
      "igan": 6004,
      "irÃŃa": 6005,
      "Ġsuici": 6006,
      "Ġsumm": 6007,
      "urre": 6008,
      "tract": 6009,
      "terr": 6010,
      "ĠMac": 6011,
      "ĠPenal": 6012,
      "ush": 6013,
      "Ġdelitos": 6014,
      "odos": 6015,
      "icias": 6016,
      "ĠDav": 6017,
      "ĠNÂº": 6018,
      "ienta": 6019,
      "Ġfron": 6020,
      "essional": 6021,
      "Ġpuestos": 6022,
      "ipul": 6023,
      "icaz": 6024,
      "Ġinterc": 6025,
      "Ġrecent": 6026,
      "Ġacts": 6027,
      "Ġsiete": 6028,
      "Ġcara": 6029,
      "ĠKen": 6030,
      "ĠStat": 6031,
      "thern": 6032,
      "ĠEstÃ¡": 6033,
      "Ġpeoples": 6034,
      "ĠhacÃŃa": 6035,
      "Ġ2003": 6036,
      "Ġ2004": 6037,
      "Ġposibilidad": 6038,
      "Ġ65": 6039,
      "Ġnecesito": 6040,
      "Ġappreci": 6041,
      "Ġimportance": 6042,
      "ĠEnglish": 6043,
      "vision": 6044,
      "Alguien": 6045,
      "Ġocas": 6046,
      "uestos": 6047,
      "nmental": 6048,
      "Ġnews": 6049,
      "Ġprinciples": 6050,
      "Does": 6051,
      "Ġevening": 6052,
      "Ġprovides": 6053,
      "Ġeficaz": 6054,
      "Ġejecut": 6055,
      "ĠRegional": 6056,
      "Ġdark": 6057,
      "Ġleyes": 6058,
      "Ġestablecido": 6059,
      "Ġdenunci": 6060,
      "ÃŃsticas": 6061,
      "Ġnucleares": 6062,
      "ĠpodrÃŃan": 6063,
      "Ġfilm": 6064,
      "Ġcumplir": 6065,
      "Ġspecif": 6066,
      "Ġcomplain": 6067,
      "Ġexactly": 6068,
      "Ġgobiernos": 6069,
      "Ġwelcom": 6070,
      "Crees": 6071,
      "Ġproperty": 6072,
      "Ġinitiatives": 6073,
      "ĠInstitute": 6074,
      "ilateral": 6075,
      "bernamentales": 6076,
      "Ġcitiz": 6077,
      "keeping": 6078,
      "47": 6079,
      "65": 6080,
      "GH": 6081,
      "Other": 6082,
      "Tend": 6083,
      "cin": 6084,
      "die": 6085,
      "rÃ¡s": 6086,
      "vere": 6087,
      "vÃ©ase": 6088,
      "wanda": 6089,
      "year": 6090,
      "Â»": 6091,
      "Ãĵ": 6092,
      "esta": 6093,
      "erve": 6094,
      "Ġpull": 6095,
      "Ġmention": 6096,
      "Ġopp": 6097,
      "Ġball": 6098,
      "Ġquality": 6099,
      "Ġanual": 6100,
      "ĠanÃ¡lisis": 6101,
      "econd": 6102,
      "amm": 6103,
      "Ġcontained": 6104,
      "ĠImp": 6105,
      "urso": 6106,
      "Ġcomida": 6107,
      "usiÃ³n": 6108,
      "Ġloved": 6109,
      "Ġrural": 6110,
      "Ġexer": 6111,
      "ĠRich": 6112,
      "Ġresearch": 6113,
      "ĠTreat": 6114,
      "eplÃ¡": 6115,
      "agu": 6116,
      "ipl": 6117,
      "ips": 6118,
      "ĠinterÃ©s": 6119,
      "Ġgrat": 6120,
      "Ġcash": 6121,
      "Ġcontro": 6122,
      "oking": 6123,
      "lave": 6124,
      "Ġcreated": 6125,
      "Ġpersonnel": 6126,
      "Ġanyway": 6127,
      "Ġseeing": 6128,
      "Ġsupp": 6129,
      "Ġpropuesta": 6130,
      "Ġ2002": 6131,
      "ressed": 6132,
      "Ġtrabajadores": 6133,
      "ĠUNICEF": 6134,
      "Ġviolations": 6135,
      "Ġconfid": 6136,
      "Ġfunny": 6137,
      "Ġformer": 6138,
      "Ġrequis": 6139,
      "ĠmÃŃn": 6140,
      "Ġdefend": 6141,
      "Ġoperational": 6142,
      "ectoral": 6143,
      "ĠFrank": 6144,
      "Ġrepresentative": 6145,
      "Ġtakes": 6146,
      "Ġattemp": 6147,
      "Ġefectos": 6148,
      "ĠbeneplÃ¡": 6149,
      "ĠdaÃ±o": 6150,
      "ĠadministraciÃ³n": 6151,
      "Ġadministrative": 6152,
      "Ġcommunities": 6153,
      "menes": 6154,
      "Ġcosts": 6155,
      "Ġstandard": 6156,
      "Ġblock": 6157,
      "point": 6158,
      "Ġdiga": 6159,
      "Ġaumentar": 6160,
      "ĠcontinuaciÃ³n": 6161,
      "Ġremains": 6162,
      "ĠpromociÃ³n": 6163,
      "ĠDemocratic": 6164,
      "Ã©gimen": 6165,
      "Ġnuevas": 6166,
      "Ġseems": 6167,
      "ĠopiniÃ³n": 6168,
      "Ġsteps": 6169,
      "Ġwelcome": 6170,
      "Ġproteger": 6171,
      "Ġcommitment": 6172,
      "Ġofficers": 6173,
      "Ġbuscando": 6174,
      "Ġdescubr": 6175,
      "ĠtecnologÃŃa": 6176,
      "ĠMINUS": 6177,
      "Ġrehabil": 6178,
      "Ġintelig": 6179,
      "Ġalrededor": 6180,
      "ĠbeneplÃ¡cito": 6181,
      "100": 6182,
      "66": 6183,
      "79": 6184,
      "By": 6185,
      "Pol": 6186,
      "UT": 6187,
      "ging": 6188,
      "hol": 6189,
      "uit": 6190,
      "ware": 6191,
      "Ġtired": 6192,
      "Ġahead": 6193,
      "onde": 6194,
      "Ġled": 6195,
      "Ġluz": 6196,
      "Ġpase": 6197,
      "Ġcard": 6198,
      "Ġdedic": 6199,
      "aro": 6200,
      "oster": 6201,
      "ani": 6202,
      "Ġmol": 6203,
      "alt": 6204,
      "ĠharÃŃa": 6205,
      "Ġfair": 6206,
      "Ġfarm": 6207,
      "Ġnaci": 6208,
      "icer": 6209,
      "Ġquiet": 6210,
      "ÃŃos": 6211,
      "ecution": 6212,
      "Ġreferencia": 6213,
      "Ġconex": 6214,
      "Ã¡is": 6215,
      "Ġunif": 6216,
      "Ġvino": 6217,
      "Ġvoz": 6218,
      "ett": 6219,
      "ĠST": 6220,
      "Ġseven": 6221,
      "Ġforward": 6222,
      "Ġones": 6223,
      "ĠcomÃºn": 6224,
      "ĠestarÃ¡": 6225,
      "Ġbeat": 6226,
      "Ġrule": 6227,
      "Ġasust": 6228,
      "Ġasist": 6229,
      "Ġasunto": 6230,
      "Ġperder": 6231,
      "Ġtren": 6232,
      "ifth": 6233,
      "ĠRom": 6234,
      "ĠRus": 6235,
      "Ġjue": 6236,
      "ende": 6237,
      "ĠHel": 6238,
      "Ãºp": 6239,
      "iese": 6240,
      "Ġacced": 6241,
      "ournal": 6242,
      "Ġgrant": 6243,
      "Estas": 6244,
      "Estaba": 6245,
      "Ġfines": 6246,
      "Ġhabit": 6247,
      "ĠhabrÃ¡": 6248,
      "Ġworth": 6249,
      "Ġactos": 6250,
      "Ġ39": 6251,
      "Ġjusto": 6252,
      "Ġcree": 6253,
      "Ġcrimes": 6254,
      "Ġmatar": 6255,
      "Ġminister": 6256,
      "Ġsomewhere": 6257,
      "Ġexpected": 6258,
      "Ġfeet": 6259,
      "Ġtransmit": 6260,
      "Ġnecesarias": 6261,
      "2010": 6262,
      "2011": 6263,
      "tains": 6264,
      "uyÃ³": 6265,
      "Ġincluded": 6266,
      "Ġrefle": 6267,
      "Ġcalle": 6268,
      "Ġrepresentatives": 6269,
      "Ġcambios": 6270,
      "Ġdetall": 6271,
      "Ġcampaign": 6272,
      "Ġobservaciones": 6273,
      "Ġstatements": 6274,
      "ĠIndia": 6275,
      "Ġagricult": 6276,
      "Ġconsultas": 6277,
      "Ġlimited": 6278,
      "Ġpagar": 6279,
      "ĠParis": 6280,
      "Ġdivert": 6281,
      "ĠFederation": 6282,
      "Ġawareness": 6283,
      "Ġdamn": 6284,
      "Supongo": 6285,
      "Ġsafety": 6286,
      "Ġpartnership": 6287,
      "ĠRussian": 6288,
      "ĠcolaboraciÃ³n": 6289,
      "ĠAND": 6290,
      "Ã¡fico": 6291,
      "Ġcuentas": 6292,
      "Ġacuerdos": 6293,
      "39": 6294,
      "500": 6295,
      "Ab": 6296,
      "Aunque": 6297,
      "God": 6298,
      "IM": 6299,
      "Ll": 6300,
      "dio": 6301,
      "han": 6302,
      "pes": 6303,
      "via": 6304,
      "yond": 6305,
      "Ġu": 6306,
      "Ġaid": 6307,
      "estruct": 6308,
      "Ġsosp": 6309,
      "arth": 6310,
      "arters": 6311,
      "Ġthanks": 6312,
      "asa": 6313,
      "asure": 6314,
      "cima": 6315,
      "ĠharÃ¡": 6316,
      "Ġhoney": 6317,
      "Ġharm": 6318,
      "Ġfix": 6319,
      "Ġfiscal": 6320,
      "Ġbuild": 6321,
      "Ġinn": 6322,
      "ÃŃtim": 6323,
      "ecos": 6324,
      "Ġgain": 6325,
      "Ġgold": 6326,
      "Ġconcentr": 6327,
      "imer": 6328,
      "Ġvel": 6329,
      "Ġvay": 6330,
      "ĠCOM": 6331,
      "ĠCode": 6332,
      "ĠCuba": 6333,
      "ĠSm": 6334,
      "Ġseas": 6335,
      "uts": 6336,
      "ĠMary": 6337,
      "ĠPacto": 6338,
      "ĠEU": 6339,
      "ests": 6340,
      "estion": 6341,
      "istic": 6342,
      "ĠLat": 6343,
      "Ġdoc": 6344,
      "Ġlev": 6345,
      "Ġshare": 6346,
      "ĠJur": 6347,
      "Ġadoles": 6348,
      "Ġcompens": 6349,
      "Ġknowledge": 6350,
      "EstÃ¡n": 6351,
      "Ġusing": 6352,
      "enso": 6353,
      "ambio": 6354,
      "iosa": 6355,
      "Ġcontacto": 6356,
      "iremos": 6357,
      "urement": 6358,
      "ĠmisiÃ³n": 6359,
      "Ġmucha": 6360,
      "Ġsolici": 6361,
      "Ġsuppose": 6362,
      "ĠpodrÃ¡": 6363,
      "Ġdij": 6364,
      "ĠcapitÃ¡n": 6365,
      "iolog": 6366,
      "Ġplane": 6367,
      "inda": 6368,
      "Ġfuego": 6369,
      "Ġconfianza": 6370,
      "Ġidiot": 6371,
      "Ġtelling": 6372,
      "CuÃ¡l": 6373,
      "cale": 6374,
      "Ġbasic": 6375,
      "Ġtrato": 6376,
      "Ġbelie": 6377,
      "Ġbelong": 6378,
      "ĠThen": 6379,
      "ependencia": 6380,
      "Ġpaper": 6381,
      "Ġcampo": 6382,
      "ĠdirÃ©": 6383,
      "Ġstandards": 6384,
      "Ġidentified": 6385,
      "Ġambiente": 6386,
      "Ġurban": 6387,
      "Ġestudi": 6388,
      "ĠaprobaciÃ³n": 6389,
      "Hasta": 6390,
      "Ġimprove": 6391,
      "Ġinstruments": 6392,
      "Ġconocimientos": 6393,
      "Ġdecided": 6394,
      "Ġarrest": 6395,
      "Ġexperiencia": 6396,
      "Ġcorrect": 6397,
      "Ġrelacionadas": 6398,
      "Ġconclud": 6399,
      "Ġextrem": 6400,
      "Ġchanges": 6401,
      "CuÃ¡nto": 6402,
      "Ġconjunto": 6403,
      "Ġpositive": 6404,
      "ĠAudit": 6405,
      "Ġenforcement": 6406,
      "Ġforgot": 6407,
      "Ġpicture": 6408,
      "Ġgentlemen": 6409,
      "Ġentitled": 6410,
      "Ġoficiosas": 6411,
      "78": 6412,
      "CN": 6413,
      "CR": 6414,
      "FF": 6415,
      "First": 6416,
      "John": 6417,
      "Ke": 6418,
      "Man": 6419,
      "PS": 6420,
      "cÃ³mo": 6421,
      "hod": 6422,
      "ires": 6423,
      "Ġajust": 6424,
      "inea": 6425,
      "Ġsong": 6426,
      "Ġlow": 6427,
      "Ġpaci": 6428,
      "ĠmÃŃa": 6429,
      "Ġmierda": 6430,
      "cipl": 6431,
      "Ġhog": 6432,
      "edir": 6433,
      "Ġfast": 6434,
      "Ġnam": 6435,
      "une": 6436,
      "under": 6437,
      "Ġquit": 6438,
      "Ġgiving": 6439,
      "Ġconn": 6440,
      "ster": 6441,
      "Ã¡st": 6442,
      "ĠIo": 6443,
      "ĠItal": 6444,
      "ĠSÃ³lo": 6445,
      "Ġeight": 6446,
      "ulg": 6447,
      "ĠEv": 6448,
      "ĠrÃ©gimen": 6449,
      "ĠDid": 6450,
      "Ġperten": 6451,
      "estro": 6452,
      "Ġsoft": 6453,
      "ĠRoma": 6454,
      "upid": 6455,
      "going": 6456,
      "While": 6457,
      "Ġabajo": 6458,
      "Ġacomp": 6459,
      "ĠJim": 6460,
      "ĠJap": 6461,
      "Ġdistr": 6462,
      "Ġadm": 6463,
      "Ġadvan": 6464,
      "Ġamend": 6465,
      "Ġentidades": 6466,
      "ĠWH": 6467,
      "Ġmiembro": 6468,
      "Ġground": 6469,
      "Ġactions": 6470,
      "Ġimplic": 6471,
      "Ġ37": 6472,
      "Ġanymore": 6473,
      "Ġtuvo": 6474,
      "ĠChief": 6475,
      "legal": 6476,
      "Debe": 6477,
      "Ġworks": 6478,
      "Seguro": 6479,
      "Ġminim": 6480,
      "Ġthemselves": 6481,
      "ĠGracias": 6482,
      "Ġreprod": 6483,
      "Ġstruct": 6484,
      "ĠUNCTAD": 6485,
      "ampoco": 6486,
      "Ġfunciones": 6487,
      "medi": 6488,
      "Ġevitar": 6489,
      "Ġspace": 6490,
      "ĠreducciÃ³n": 6491,
      "Ġreduce": 6492,
      "Ġproblems": 6493,
      "Ġdrive": 6494,
      "Ã©rcito": 6495,
      "Ġlawy": 6496,
      "Ġdinner": 6497,
      "ĠFrancis": 6498,
      "Ġrepresentante": 6499,
      "Ġadoption": 6500,
      "ĠAmÃ©rica": 6501,
      "ecutor": 6502,
      "Ġresponsable": 6503,
      "Report": 6504,
      "Ġdecisions": 6505,
      "Ġexplos": 6506,
      "Ġexplain": 6507,
      "Ġrecibir": 6508,
      "Ġdiferencia": 6509,
      "Ġpractices": 6510,
      "Ġcircul": 6511,
      "Ġproporcionar": 6512,
      "Ġganar": 6513,
      "Ġhurry": 6514,
      "ĠpequeÃ±a": 6515,
      "Ġculpa": 6516,
      "Ġdrogas": 6517,
      "Ġpuso": 6518,
      "ĠAmerican": 6519,
      "Ġdolor": 6520,
      "ĠRepresentante": 6521,
      "ĠRepresentative": 6522,
      "Ġtorture": 6523,
      "Ġmuchacho": 6524,
      "Ġsuffer": 6525,
      "Ġdescans": 6526,
      "ĠInspector": 6527,
      "ĠÃ³rganos": 6528,
      "Ġdiscussion": 6529,
      "Ġfiguran": 6530,
      "Ġexchange": 6531,
      "Ġadequate": 6532,
      "))": 6533,
      "37": 6534,
      "46": 6535,
      "AÃºn": 6536,
      "Bas": 6537,
      "Hi": 6538,
      "Part": 6539,
      "cas": 6540,
      "ki": 6541,
      "oj": 6542,
      "ois": 6543,
      "ux": 6544,
      "utr": 6545,
      "Ġtro": 6546,
      "Ġaport": 6547,
      "enos": 6548,
      "erse": 6549,
      "Ġduty": 6550,
      "onic": 6551,
      "Ġsen": 6552,
      "Ġsqu": 6553,
      "Ġsun": 6554,
      "Ġlie": 6555,
      "Ġpoc": 6556,
      "anta": 6557,
      "Ġmass": 6558,
      "isiera": 6559,
      "Ġfres": 6560,
      "Ġbu": 6561,
      "oms": 6562,
      "inger": 6563,
      "idge": 6564,
      "Ġconozco": 6565,
      "ille": 6566,
      "ĠIII": 6567,
      "abo": 6568,
      "ival": 6569,
      "Ġsud": 6570,
      "tock": 6571,
      "ĠMat": 6572,
      "ĠMax": 6573,
      "ĠPort": 6574,
      "ĠPNUD": 6575,
      "otos": 6576,
      "Ġwhite": 6577,
      "ills": 6578,
      "umber": 6579,
      "Ġresta": 6580,
      "Ġresist": 6581,
      "ĠLord": 6582,
      "ĠNav": 6583,
      "elling": 6584,
      "ĠOK": 6585,
      "Ġacog": 6586,
      "Ġimper": 6587,
      "forma": 6588,
      "ĠJud": 6589,
      "ĠprevenciÃ³n": 6590,
      "Ġentend": 6591,
      "Ġgrab": 6592,
      "ffee": 6593,
      "Ġinformal": 6594,
      "Ġinformed": 6595,
      "ĠcariÃ±o": 6596,
      "venant": 6597,
      "Ġ35": 6598,
      "eave": 6599,
      "Ġmarriage": 6600,
      "âĢĶ": 6601,
      "Ġpropio": 6602,
      "Ġsave": 6603,
      "Ġclub": 6604,
      "Ġtrabajando": 6605,
      "Ġcontrat": 6606,
      "Ġappoint": 6607,
      "ĠviolaciÃ³n": 6608,
      "Ġpresentar": 6609,
      "Ġmont": 6610,
      "Ġmoved": 6611,
      "Ġtratando": 6612,
      "ĠOrgan": 6613,
      "Antes": 6614,
      "Ġllamar": 6615,
      "Ġcomunidades": 6616,
      "ĠseÃ±orita": 6617,
      "ĠFrance": 6618,
      "Ġlugares": 6619,
      "Ġprocedimiento": 6620,
      "Ġcontributions": 6621,
      "Ġfeeling": 6622,
      "ĠdetenciÃ³n": 6623,
      "Ġinvestigation": 6624,
      "Ġautoridad": 6625,
      "Ġfacilitar": 6626,
      "Ġpreguntar": 6627,
      "Ġpreguntas": 6628,
      "Ġexplot": 6629,
      "Ġunderstanding": 6630,
      "Ġniveles": 6631,
      "Ġvarias": 6632,
      "Ġtravel": 6633,
      "Ġstrategies": 6634,
      "Ġestudio": 6635,
      "Ġpesar": 6636,
      "Ġmissions": 6637,
      "ustria": 6638,
      "Ġcultural": 6639,
      "Ġfundamentales": 6640,
      "Ġaffected": 6641,
      "Ġexperience": 6642,
      "Ġwindow": 6643,
      "bserv": 6644,
      "ĠelaboraciÃ³n": 6645,
      "Ġrefugiados": 6646,
      "Ġsingle": 6647,
      "Ġencuentra": 6648,
      "Ġmarket": 6649,
      "Ġofficer": 6650,
      "ĠBueno": 6651,
      "Ġequivoc": 6652,
      "ĠEconÃ³mico": 6653,
      "Ġavances": 6654,
      "Ġpeligro": 6655,
      "Ġabsolut": 6656,
      "ĠMartin": 6657,
      "Ġfloor": 6658,
      "Ġperspect": 6659,
      "Ġenfoque": 6660,
      "ĠcafÃ©": 6661,
      "Ġforeign": 6662,
      "utenant": 6663,
      "governmental": 6664,
      "ĠtelÃ©fono": 6665,
      "ĠRusia": 6666,
      "ĠacompaÃ±": 6667,
      "38": 6668,
      "61": 6669,
      "AhÃŃ": 6670,
      "Cl": 6671,
      "Det": 6672,
      "Hoy": 6673,
      "Llev": 6674,
      "Never": 6675,
      "OK": 6676,
      "PP": 6677,
      "Sorry": 6678,
      "ball": 6679,
      "cor": 6680,
      "junto": 6681,
      "right": 6682,
      "zan": 6683,
      "Ã´": 6684,
      "Ġ/": 6685,
      "Ġ:": 6686,
      "Ġtales": 6687,
      "Ġtick": 6688,
      "Ġavis": 6689,
      "erm": 6690,
      "eren": 6691,
      "eral": 6692,
      "Ġdil": 6693,
      "Ġdices": 6694,
      "inta": 6695,
      "Ġsav": 6696,
      "Ġstra": 6697,
      "Ġsanci": 6698,
      "Ġsoul": 6699,
      "aries": 6700,
      "orr": 6701,
      "oring": 6702,
      "osas": 6703,
      "cience": 6704,
      "allo": 6705,
      "Ġhy": 6706,
      "Ġhang": 6707,
      "itable": 6708,
      "isc": 6709,
      "Ġocho": 6710,
      "Ġfly": 6711,
      "Ġfish": 6712,
      "Ġfear": 6713,
      "emn": 6714,
      "etas": 6715,
      "reso": 6716,
      "irgin": 6717,
      "aco": 6718,
      "ulado": 6719,
      "ĠPres": 6720,
      "ĠPublic": 6721,
      "Ġdeliber": 6722,
      "Ġlock": 6723,
      "Ġrend": 6724,
      "oder": 6725,
      "ĠDi": 6726,
      "antos": 6727,
      "ĠRight": 6728,
      "umbre": 6729,
      "ĠprisiÃ³n": 6730,
      "ĠBas": 6731,
      "ĠNi": 6732,
      "Ãºtil": 6733,
      "Ġdescon": 6734,
      "Ġ2016": 6735,
      "Ġarma": 6736,
      "Ġabuse": 6737,
      "Ġplaces": 6738,
      "Ġadmit": 6739,
      "Ġentren": 6740,
      "Ġhasn": 6741,
      "Ġfinancing": 6742,
      "Ġverte": 6743,
      "Ġconten": 6744,
      "Ġconsolid": 6745,
      "venir": 6746,
      "Ġpeor": 6747,
      "ĠcrÃŃ": 6748,
      "Debo": 6749,
      "Ġminuto": 6750,
      "Ġinvited": 6751,
      "Ġsabemos": 6752,
      "Ġunderta": 6753,
      "uele": 6754,
      "Ġquieren": 6755,
      "Ġviolation": 6756,
      "Ġviolaciones": 6757,
      "Ġcalls": 6758,
      "Ġmala": 6759,
      "ĠHead": 6760,
      "ĠPros": 6761,
      "ĠReuniÃ³n": 6762,
      "Ġllamado": 6763,
      "Ġbelow": 6764,
      "Ġlaws": 6765,
      "Ġmiles": 6766,
      "Ġjunto": 6767,
      "ysis": 6768,
      "ĠCovenant": 6769,
      "Nothing": 6770,
      "Ġ1998": 6771,
      "Ġissued": 6772,
      "Ġstage": 6773,
      "ĠPolÃŃ": 6774,
      "Ġcielo": 6775,
      "ĠÃºltimos": 6776,
      "Ġretir": 6777,
      "ĠOfficer": 6778,
      "Ġconflicto": 6779,
      "ĠtendrÃ¡": 6780,
      "Ġurg": 6781,
      "Ġcombin": 6782,
      "Ġrunning": 6783,
      "Ġschools": 6784,
      "Ġestudios": 6785,
      "iveness": 6786,
      "Podr": 6787,
      "Ġincluidos": 6788,
      "Ġholding": 6789,
      "Ġpotential": 6790,
      "Ġerror": 6791,
      "Ġdefinit": 6792,
      "ĠlÃŃmit": 6793,
      "ĠSiria": 6794,
      "Ġjurisdict": 6795,
      "Ġladies": 6796,
      "Ġoriginal": 6797,
      "ĠaviÃ³n": 6798,
      "Ġasegurar": 6799,
      "Ġmecanismo": 6800,
      "Espera": 6801,
      "Ġconsidera": 6802,
      "Ġmatrimonio": 6803,
      "Ġnetwork": 6804,
      "Ġalleged": 6805,
      "Ġenfrent": 6806,
      "Ġobtener": 6807,
      "Ġvillage": 6808,
      "Ġcuarto": 6809,
      "Ġnegoti": 6810,
      "ĠmÃºsica": 6811,
      "Ġmaravill": 6812,
      "ĠDavid": 6813,
      "49": 6814,
      "Ellos": 6815,
      "Med": 6816,
      "ONU": 6817,
      "ST": 6818,
      "Say": 6819,
      "Was": 6820,
      "ho": 6821,
      "ko": 6822,
      "nic": 6823,
      "Ġ%": 6824,
      "enio": 6825,
      "erto": 6826,
      "Ġlink": 6827,
      "Ġcient": 6828,
      "ĠcÃ¡r": 6829,
      "Ġdeep": 6830,
      "orno": 6831,
      "anced": 6832,
      "Ġhall": 6833,
      "itory": 6834,
      "isiones": 6835,
      "isms": 6836,
      "enth": 6837,
      "ĠfÃŃs": 6838,
      "Ġbol": 6839,
      "Ġbreat": 6840,
      "Ġbath": 6841,
      "Ġinci": 6842,
      "uncia": 6843,
      "ionales": 6844,
      "Ġano": 6845,
      "Ġess": 6846,
      "ÃŃble": 6847,
      "Ã©d": 6848,
      "ĠCam": 6849,
      "ĠSen": 6850,
      "Ġlose": 6851,
      "ĠAustralia": 6852,
      "otal": 6853,
      "Ġru": 6854,
      "Ġrap": 6855,
      "izes": 6856,
      "ĠBos": 6857,
      "ĠTake": 6858,
      "ĠNick": 6859,
      "Ġmues": 6860,
      "aine": 6861,
      "oyo": 6862,
      "Ġadquis": 6863,
      "Ġentities": 6864,
      "Ġentender": 6865,
      "gua": 6866,
      "Ġupd": 6867,
      "Ġimpres": 6868,
      "uestra": 6869,
      "cuencia": 6870,
      "Ġrespet": 6871,
      "ĠVal": 6872,
      "ĠVamos": 6873,
      "ĠdebÃŃa": 6874,
      "Ġrock": 6875,
      "Ġpropuestas": 6876,
      "Ã©simo": 6877,
      "ĠposiciÃ³n": 6878,
      "Ġ48": 6879,
      "Ġ66": 6880,
      "Ġresoluciones": 6881,
      "Ġsegunda": 6882,
      "United": 6883,
      "ĠHealth": 6884,
      "ĠAnton": 6885,
      "ĠAdvisory": 6886,
      "Buenas": 6887,
      "Ġkept": 6888,
      "Ġfui": 6889,
      "Ġcalm": 6890,
      "Ã©rd": 6891,
      "Ġpensando": 6892,
      "Ġefici": 6893,
      "Ġcontribut": 6894,
      "Ġcama": 6895,
      "Ġcomplete": 6896,
      "armament": 6897,
      "ĠPolice": 6898,
      "ibunales": 6899,
      "Once": 6900,
      "ĠCorte": 6901,
      "Ġfoot": 6902,
      "Ġmotivos": 6903,
      "ĠmuriÃ³": 6904,
      "ĠManagement": 6905,
      "ĠÃºnica": 6906,
      "Ġtreaty": 6907,
      "Ġreasons": 6908,
      "Debemos": 6909,
      "Ġatrap": 6910,
      "Ġarrested": 6911,
      "ĠJustice": 6912,
      "Ġpiensa": 6913,
      "Ġamplia": 6914,
      "Ġcorrec": 6915,
      "Ġsanct": 6916,
      "Ġenfermed": 6917,
      "ĠConsult": 6918,
      "ĠprÃ³xima": 6919,
      "ĠSudan": 6920,
      "Ġodio": 6921,
      "Ġelementos": 6922,
      "Ġdemonstr": 6923,
      "ĠmÃ¡xim": 6924,
      "Ġmechanism": 6925,
      "Ġlearn": 6926,
      "Ġarbitr": 6927,
      "ĠTreaty": 6928,
      "ĠcÃ¡rcel": 6929,
      "212": 6930,
      "==": 6931,
      "Bet": 6932,
      "Eh": 6933,
      "Nadie": 6934,
      "Pl": 6935,
      "Put": 6936,
      "Ste": 6937,
      "Sus": 6938,
      "Vaya": 6939,
      "Wel": 6940,
      "bol": 6941,
      "fil": 6942,
      "gle": 6943,
      "jor": 6944,
      "nia": 6945,
      "oke": 6946,
      "ped": 6947,
      "uj": 6948,
      "yan": 6949,
      "zado": 6950,
      "Ġiz": 6951,
      "Ġacep": 6952,
      "enge": 6953,
      "enry": 6954,
      "Ġsake": 6955,
      "Ġsomos": 6956,
      "Ġlower": 6957,
      "Ġpec": 6958,
      "Ġpone": 6959,
      "Ġce": 6960,
      "anzas": 6961,
      "Ġmic": 6962,
      "Ġmira": 6963,
      "Ġmoles": 6964,
      "itude": 6965,
      "elle": 6966,
      "Ġoh": 6967,
      "Ġfacult": 6968,
      "Ã³vil": 6969,
      "Ġquerr": 6970,
      "Ġencima": 6971,
      "amor": 6972,
      "level": 6973,
      "Ġrefor": 6974,
      "Ġrepe": 6975,
      "Ġrepar": 6976,
      "Ġyouth": 6977,
      "ette": 6978,
      "ĠCÃ³digo": 6979,
      "ĠScot": 6980,
      "irma": 6981,
      "Ġsufr": 6982,
      "Those": 6983,
      "ĠAdo": 6984,
      "ayo": 6985,
      "term": 6986,
      "ĠMom": 6987,
      "Ġcomments": 6988,
      "ĠPlease": 6989,
      "ĠEmp": 6990,
      "Ġhaz": 6991,
      "Ġhagas": 6992,
      "antil": 6993,
      "ĠRwanda": 6994,
      "Ġleer": 6995,
      "Ġking": 6996,
      "ĠFiscal": 6997,
      "iego": 6998,
      "ĠOl": 6999,
      "ĠOpt": 7000,
      "ĠOne": 7001,
      "Ġaprop": 7002,
      "Ġchair": 7003,
      "Quer": 7004,
      "ocol": 7005,
      "echo": 7006,
      "ager": 7007,
      "Ġdisco": 7008,
      "Ġcans": 7009,
      "ucr": 7010,
      "Ġconsigu": 7011,
      "aker": 7012,
      "Ġ33": 7013,
      "ĠVol": 7014,
      "uctive": 7015,
      "Ġprovinci": 7016,
      "noon": 7017,
      "Ġ58": 7018,
      "Ġ500": 7019,
      "Ġsubmit": 7020,
      "Ġbrief": 7021,
      "uye": 7022,
      "Ġmenudo": 7023,
      "Ġespero": 7024,
      "Ġ77": 7025,
      "ĠllevÃ³": 7026,
      "Ġforms": 7027,
      "Ġ90": 7028,
      "ĠAnt": 7029,
      "Ġdefensa": 7030,
      "Ġmethod": 7031,
      "Ġhappens": 7032,
      "Ġimplementing": 7033,
      "Ã©rmin": 7034,
      "Ġapoyar": 7035,
      "Ġasking": 7036,
      "lands": 7037,
      "ĠintegraciÃ³n": 7038,
      "Ġdestac": 7039,
      "Ġbroad": 7040,
      "itutional": 7041,
      "ucido": 7042,
      "Ġphys": 7043,
      "Ġadministration": 7044,
      "Sabe": 7045,
      "ĠCarta": 7046,
      "Excuse": 7047,
      "Ġentrada": 7048,
      "Ġdirector": 7049,
      "ĠReglamento": 7050,
      "Ġdispuesto": 7051,
      "menia": 7052,
      "seguida": 7053,
      "Since": 7054,
      "ĠSupport": 7055,
      "ENT": 7056,
      "ĠFederaciÃ³n": 7057,
      "ÃŃfica": 7058,
      "Prom": 7059,
      "Ġbehalf": 7060,
      "Ġoccup": 7061,
      "Ġmercado": 7062,
      "ĠAdministraciÃ³n": 7063,
      "Ġefectivo": 7064,
      "Ġstrengthen": 7065,
      "Ġreached": 7066,
      "ĠprÃ³ximo": 7067,
      "Ġsimilar": 7068,
      "Ġagreements": 7069,
      "Ġprofesional": 7070,
      "Ġmusic": 7071,
      "Ġfunction": 7072,
      "Ġtuviera": 7073,
      "Ġsubstant": 7074,
      "PensÃ©": 7075,
      "ĠbaÃ±o": 7076,
      "Ġenhance": 7077,
      "Ġdisappe": 7078,
      "Ġlanguage": 7079,
      "ĠÃģrabe": 7080,
      "ĠGovernments": 7081,
      "ĠUNFPA": 7082,
      "Ġadolesc": 7083,
      "56": 7084,
      "Col": 7085,
      "Could": 7086,
      "Han": 7087,
      "Im": 7088,
      "MI": 7089,
      "Ma": 7090,
      "Mald": 7091,
      "Stop": 7092,
      "Table": 7093,
      "WH": 7094,
      "cado": 7095,
      "eks": 7096,
      "lav": 7097,
      "ses": 7098,
      "tate": 7099,
      "uant": 7100,
      "ĠtÃ©rmin": 7101,
      "ĠaÃ©": 7102,
      "Ġdign": 7103,
      "Ġdicen": 7104,
      "onte": 7105,
      "Ġpond": 7106,
      "ĠpÃ©rd": 7107,
      "arg": 7108,
      "arry": 7109,
      "reas": 7110,
      "atura": 7111,
      "alidad": 7112,
      "Ġhero": 7113,
      "Ġwall": 7114,
      "Ġweren": 7115,
      "edores": 7116,
      "Ġinmedi": 7117,
      "ÃŃes": 7118,
      "Ġenf": 7119,
      "Ġelements": 7120,
      "Ġconference": 7121,
      "illy": 7122,
      "Ġvio": 7123,
      "Ġvivo": 7124,
      "ĠCult": 7125,
      "Ġalive": 7126,
      "ulations": 7127,
      "ĠMujer": 7128,
      "ĠPak": 7129,
      "ĠEarth": 7130,
      "Ġround": 7131,
      "Ġrub": 7132,
      "Ġasc": 7133,
      "Ġtrib": 7134,
      "Ġtribunal": 7135,
      "aper": 7136,
      "apon": 7137,
      "ĠGreat": 7138,
      "ĠBill": 7139,
      "ĠTra": 7140,
      "ĠTechn": 7141,
      "Ġdesast": 7142,
      "Ġoro": 7143,
      "ĠOb": 7144,
      "Ġargu": 7145,
      "Ġchamp": 7146,
      "Ġacost": 7147,
      "Ġacross": 7148,
      "echos": 7149,
      "ĠJos": 7150,
      "Ġdiscipl": 7151,
      "ajes": 7152,
      "Ġcomput": 7153,
      "Ġinterior": 7154,
      "Ġinterrog": 7155,
      "ĠWas": 7156,
      "uces": 7157,
      "Ġrecurr": 7158,
      "Ġmane": 7159,
      "Espero": 7160,
      "Ġfinished": 7161,
      "Ġverlo": 7162,
      "Ġconsent": 7163,
      "uerto": 7164,
      "ĠKor": 7165,
      "Ġmista": 7166,
      "Intern": 7167,
      "Ġrelaciones": 7168,
      "grama": 7169,
      "Ġcritical": 7170,
      "Ġdebemos": 7171,
      "Ġroll": 7172,
      "anciaciÃ³n": 7173,
      "Ġinvent": 7174,
      "ĠniÃ±a": 7175,
      "ĠAssoci": 7176,
      "Ġsale": 7177,
      "ticles": 7178,
      "Ġaccoun": 7179,
      "void": 7180,
      "ĠsecciÃ³n": 7181,
      "ĠMark": 7182,
      "Ġsiguen": 7183,
      "Ġcontinues": 7184,
      "Ġ70": 7185,
      "Ġllevado": 7186,
      "Ġsometimes": 7187,
      "adoras": 7188,
      "Ġdesplaz": 7189,
      "Ġterreno": 7190,
      "Ġtratado": 7191,
      "Ġconsiderable": 7192,
      "Ġafternoon": 7193,
      "Ġcivilians": 7194,
      "ĠpensÃ©": 7195,
      "2003": 7196,
      "Ġcontribuciones": 7197,
      "Ġapproved": 7198,
      "ĠMeeting": 7199,
      "Ġsorpr": 7200,
      "Ġdraw": 7201,
      "Ġintegration": 7202,
      "Ġencontrado": 7203,
      "Ġstake": 7204,
      "Ġtonto": 7205,
      "ĠIndepend": 7206,
      "Ġmesa": 7207,
      "ĠutilizaciÃ³n": 7208,
      "Ġactually": 7209,
      "Ġactualmente": 7210,
      "Ġambos": 7211,
      "Ġdomin": 7212,
      "Ġcharge": 7213,
      "Ġindependiente": 7214,
      "Ġinteresados": 7215,
      "Ġtemper": 7216,
      "Ġhistory": 7217,
      "ĠmÃ©to": 7218,
      "Ġanti": 7219,
      "ÃŃstica": 7220,
      "Ġfelt": 7221,
      "Ġstudy": 7222,
      "ÃŃficos": 7223,
      "Ġimagine": 7224,
      "Ġaudit": 7225,
      "ĠJusticia": 7226,
      "ĠtÃ©cnica": 7227,
      "Ġclaim": 7228,
      "ĠseÃ±alÃ³": 7229,
      "Ġcertainly": 7230,
      "Everything": 7231,
      "Ġdollar": 7232,
      "ĠMedio": 7233,
      "ĠeconomÃŃa": 7234,
      "Ġchanged": 7235,
      "Ġtortura": 7236,
      "Ġanimal": 7237,
      "Discul": 7238,
      "Ġaquell": 7239,
      "Ġpsych": 7240,
      "Ġcommunication": 7241,
      "ĠelectrÃ³nico": 7242,
      "Ġescala": 7243,
      "ĠcompaÃ±ÃŃa": 7244,
      "ĠDeclaration": 7245,
      "ĠKingdom": 7246,
      "Ġsubsid": 7247,
      "Ġamenaz": 7248,
      "Ġproceedings": 7249,
      "Ġmanifest": 7250,
      "ĠfrancÃ©s": 7251,
      "Ġabogado": 7252,
      "Ġprevisto": 7253,
      "ĠNigeria": 7254,
      "Ġinstalaciones": 7255,
      "Ġdijiste": 7256,
      "Ġanoche": 7257,
      "Ġizquier": 7258,
      "'.": 7259,
      "51": 7260,
      "84": 7261,
      "FC": 7262,
      "Imp": 7263,
      "Leave": 7264,
      "Mientras": 7265,
      "PC": 7266,
      "Somos": 7267,
      "Vale": 7268,
      "cell": 7269,
      "dis": 7270,
      "iÃ©nd": 7271,
      "pens": 7272,
      "vement": 7273,
      "you": 7274,
      "Ġtall": 7275,
      "Ġtampoco": 7276,
      "ercial": 7277,
      "Ġdan": 7278,
      "Ġdance": 7279,
      "oner": 7280,
      "onom": 7281,
      "inc": 7282,
      "Ġsy": 7283,
      "Ġsad": 7284,
      "Ġcore": 7285,
      "anies": 7286,
      "Ġmente": 7287,
      "rey": 7288,
      "reement": 7289,
      "atem": 7290,
      "ciente": 7291,
      "Ġhun": 7292,
      "eless": 7293,
      "Ġfeder": 7294,
      "Ġbother": 7295,
      "ĠquizÃ¡": 7296,
      "Ġofreci": 7297,
      "ids": 7298,
      "idar": 7299,
      "amÃ¡s": 7300,
      "Ġelectoral": 7301,
      "Ġrepl": 7302,
      "emical": 7303,
      "Ġsearch": 7304,
      "Ġalta": 7305,
      "Ġcomien": 7306,
      "ĠPaz": 7307,
      "Ġestat": 7308,
      "Ġran": 7309,
      "oda": 7310,
      "ĠDay": 7311,
      "Ġwhatever": 7312,
      "Ġperro": 7313,
      "Ġpermis": 7314,
      "ifying": 7315,
      "ĠGerman": 7316,
      "ibl": 7317,
      "ĠRef": 7318,
      "Ġprice": 7319,
      "ĠBE": 7320,
      "ĠBer": 7321,
      "raw": 7322,
      "Ġkm": 7323,
      "Ġkil": 7324,
      "Ġkiss": 7325,
      "Ãºa": 7326,
      "Ġdesaf": 7327,
      "enciones": 7328,
      "ieutenant": 7329,
      "ĠOs": 7330,
      "Ġappl": 7331,
      "Ġabar": 7332,
      "Ġstupid": 7333,
      "ague": 7334,
      "ĠserÃ¡n": 7335,
      "Ġplante": 7336,
      "Ġdispl": 7337,
      "Ġprevention": 7338,
      "Ġentire": 7339,
      "Estos": 7340,
      "Ġcontamin": 7341,
      "Ġcool": 7342,
      "Ġcoleg": 7343,
      "Ġimpart": 7344,
      "ĠKe": 7345,
      "Ġcreate": 7346,
      "azo": 7347,
      "ousand": 7348,
      "Ġbienes": 7349,
      "Ġdebes": 7350,
      "friend": 7351,
      "ÃŃses": 7352,
      "Ġautom": 7353,
      "Ġhayan": 7354,
      "Ġcorpor": 7355,
      "cionales": 7356,
      "ĠcondiciÃ³n": 7357,
      "Ġcontrato": 7358,
      "Ġresolver": 7359,
      "taining": 7360,
      "Ġedif": 7361,
      "Asimismo": 7362,
      "Ġorganized": 7363,
      "ĠAlto": 7364,
      "Ġspot": 7365,
      "Ġllamo": 7366,
      "Ġtercer": 7367,
      "ĠMinistro": 7368,
      "cidental": 7369,
      "Ġblanco": 7370,
      "Ġspeaking": 7371,
      "ĠAmb": 7372,
      "ataforma": 7373,
      "Ġdestino": 7374,
      "Ġflight": 7375,
      "Ġbroken": 7376,
      "Ġlabour": 7377,
      "Ġcelebrada": 7378,
      "Ġsettle": 7379,
      "Ġdelegations": 7380,
      "Ġutilizar": 7381,
      "ĠpÃ¡rr": 7382,
      "Ġjoin": 7383,
      "cepciÃ³n": 7384,
      "Ġpermitir": 7385,
      "Ġelecciones": 7386,
      "Ġprioridad": 7387,
      "ĠCorea": 7388,
      "Ġpeacekeeping": 7389,
      "Ġbenefit": 7390,
      "razil": 7391,
      "Ġcompetencia": 7392,
      "Ġstudies": 7393,
      "ĠextraÃ±o": 7394,
      "Ġextrad": 7395,
      "Ġapplicable": 7396,
      "eneva": 7397,
      "ĠBarb": 7398,
      "Ġcumplimiento": 7399,
      "Ġterminado": 7400,
      "Ġequipos": 7401,
      "Ġturned": 7402,
      "Ġeconomy": 7403,
      "Ġhiciste": 7404,
      "ĠStrateg": 7405,
      "Ġsectors": 7406,
      "Ġnegocios": 7407,
      "Ġvoice": 7408,
      "Ġdeseen": 7409,
      "ĠExpertos": 7410,
      "Ġmechanisms": 7411,
      "Ġasesinato": 7412,
      "mediately": 7413,
      "Ġmessage": 7414,
      "Escucha": 7415,
      "Ġdistintos": 7416,
      "Ġadelante": 7417,
      "Ġmensaje": 7418,
      "Ġaproxim": 7419,
      "Ġaimed": 7420,
      "Ġsweet": 7421,
      "Ġarrangements": 7422,
      "Ġdoubt": 7423,
      "Ġhousing": 7424,
      "ĠpelÃŃcula": 7425,
      "Ġstraight": 7426,
      ".'": 7427,
      "34": 7428,
      "41": 7429,
      "71": 7430,
      "AO": 7431,
      "Di": 7432,
      "Dos": 7433,
      "Even": 7434,
      "Haz": 7435,
      "Mis": 7436,
      "Two": 7437,
      "ming": 7438,
      "ni": 7439,
      "rÃ³n": 7440,
      "vas": 7441,
      "Â°": 7442,
      "Ġul": 7443,
      "Ġavoid": 7444,
      "estern": 7445,
      "eration": 7446,
      "eria": 7447,
      "ini": 7448,
      "Ġsense": 7449,
      "Ġsched": 7450,
      "Ġpies": 7451,
      "Ġpeg": 7452,
      "Ġcere": 7453,
      "Ġcause": 7454,
      "Ġdeja": 7455,
      "ories": 7456,
      "orism": 7457,
      "Ġthus": 7458,
      "Ġthrow": 7459,
      "Ġthousand": 7460,
      "Ġhop": 7461,
      "Ġhers": 7462,
      "itan": 7463,
      "eles": 7464,
      "Ġfondo": 7465,
      "Ġnar": 7466,
      "Ġnine": 7467,
      "Ġinh": 7468,
      "icul": 7469,
      "Ġtoler": 7470,
      "room": 7471,
      "Ġenm": 7472,
      "Ġenga": 7473,
      "Ġrech": 7474,
      "Ġconferencia": 7475,
      "stru": 7476,
      "Ã¡b": 7477,
      "Ġves": 7478,
      "etros": 7479,
      "ividades": 7480,
      "ĠSing": 7481,
      "Ġeuro": 7482,
      "Ġsumin": 7483,
      "urch": 7484,
      "ĠAle": 7485,
      "tero": 7486,
      "ĠMill": 7487,
      "vey": 7488,
      "ĠestÃºp": 7489,
      "otion": 7490,
      "iende": 7491,
      "Ġride": 7492,
      "Nobody": 7493,
      "ĠRam": 7494,
      "istical": 7495,
      "ĠBank": 7496,
      "ĠTierra": 7497,
      "ĠLegal": 7498,
      "Ġdesea": 7499,
      "enciales": 7500,
      "ĠFamil": 7501,
      "ĠONU": 7502,
      "Ġnoticias": 7503,
      "Ġabierta": 7504,
      "occo": 7505,
      "ĠJord": 7506,
      "ĠJefe": 7507,
      "Ġdisfr": 7508,
      "Ġprecio": 7509,
      "alling": 7510,
      "Ġadult": 7511,
      "Ġparts": 7512,
      "ĠWal": 7513,
      "Ġrecover": 7514,
      "Ġrecru": 7515,
      "avy": 7516,
      "Ġgraci": 7517,
      "feras": 7518,
      "ĠInvest": 7519,
      "Ġcoher": 7520,
      "Ġconsign": 7521,
      "Ġimpos": 7522,
      "ĠEstoy": 7523,
      "Ġrelativo": 7524,
      "Ġmarch": 7525,
      "acho": 7526,
      "SeÃ±": 7527,
      "âĢĵ": 7528,
      "ĠAsÃŃ": 7529,
      "Ġcount": 7530,
      "Ġcounter": 7531,
      "ĠÃ©ste": 7532,
      "Ġemphas": 7533,
      "ĠProd": 7534,
      "Ġintell": 7535,
      "Ġdifference": 7536,
      "ĠTratado": 7537,
      "Ġquiera": 7538,
      "Ġincome": 7539,
      "ĠUNEP": 7540,
      "Ġmonta": 7541,
      "Ġmenor": 7542,
      "Ġways": 7543,
      "Ġcalling": 7544,
      "Ġformular": 7545,
      "ĠAng": 7546,
      "ĠReino": 7547,
      "Ġsupported": 7548,
      "Ġgustan": 7549,
      "ĠIslam": 7550,
      "Ġhorse": 7551,
      "Ġparticipate": 7552,
      "Ġparticipantes": 7553,
      "Ġvale": 7554,
      "Ġmodelo": 7555,
      "2006": 7556,
      "Ġfinanciero": 7557,
      "Ġ1995": 7558,
      "Ġproducts": 7559,
      "Ġphoto": 7560,
      "Ġescuelas": 7561,
      "Ġprivado": 7562,
      "Ġarmy": 7563,
      "Ġreconoc": 7564,
      "Ġreconcil": 7565,
      "ĠLook": 7566,
      "Ġobligaciones": 7567,
      "Ġpermite": 7568,
      "Ġpriority": 7569,
      "Ġprogresos": 7570,
      "Ġexisting": 7571,
      "Ġmotivo": 7572,
      "Ġeth": 7573,
      "ĠAcciÃ³n": 7574,
      "ĠServicios": 7575,
      "Ġearth": 7576,
      "Ġextraordin": 7577,
      "Ġremained": 7578,
      "Ġprecis": 7579,
      "Ġgenerales": 7580,
      "Ġempresa": 7581,
      "Ġimagin": 7582,
      "ĠobstÃ¡cul": 7583,
      "Ġdirigida": 7584,
      "Ġsecret": 7585,
      "ĠInformaciÃ³n": 7586,
      "Ġexactamente": 7587,
      "ĠChristmas": 7588,
      "Ġestrategias": 7589,
      "Ġincluye": 7590,
      "cripciÃ³n": 7591,
      "Ġcomponent": 7592,
      "Ġllegu": 7593,
      "Ġtemporary": 7594,
      "Ġanalysis": 7595,
      "ĠCooperation": 7596,
      "Ġreconocimiento": 7597,
      "Ġlucky": 7598,
      "Ġfemale": 7599,
      "Ġcarrera": 7600,
      "Ġwritten": 7601,
      "ĠperiÃ³dico": 7602,
      "ĠsueÃ±o": 7603,
      "Ġdestroy": 7604,
      "ĠPolicÃŃa": 7605,
      "Ġscared": 7606,
      "Furthermore": 7607,
      "Ġcitizens": 7608,
      "ÃĵN": 7609,
      "ĠJurÃŃd": 7610,
      "!\"": 7611,
      "Dame": 7612,
      "Luego": 7613,
      "Many": 7614,
      "New": 7615,
      "SS": 7616,
      "Sure": 7617,
      "Sign": 7618,
      "TER": 7619,
      "Women": 7620,
      "YOU": 7621,
      "ao": 7622,
      "jes": 7623,
      "kes": 7624,
      "ociÃ³n": 7625,
      "ris": 7626,
      "rary": 7627,
      "tor": 7628,
      "ument": 7629,
      "ujo": 7630,
      "Ġ)": 7631,
      "Ġaz": 7632,
      "erican": 7633,
      "ĠdÃ©j": 7634,
      "into": 7635,
      "Ġsom": 7636,
      "Ġpant": 7637,
      "Ġdepr": 7638,
      "atar": 7639,
      "atform": 7640,
      "cise": 7641,
      "alda": 7642,
      "Ġwed": 7643,
      "eding": 7644,
      "Ġnombr": 7645,
      "Ġinj": 7646,
      "Ġinmediat": 7647,
      "ication": 7648,
      "Ġescl": 7649,
      "Ġesferas": 7650,
      "rote": 7651,
      "ecÃŃa": 7652,
      "Ġgeo": 7653,
      "ami": 7654,
      "Ġreference": 7655,
      "Ġconced": 7656,
      "Ġconoce": 7657,
      "stairs": 7658,
      "ĠCre": 7659,
      "ĠSin": 7660,
      "ĠSch": 7661,
      "ĠSum": 7662,
      "ĠSoy": 7663,
      "acher": 7664,
      "urb": 7665,
      "Thanks": 7666,
      "teras": 7667,
      "ĠME": 7668,
      "ĠMel": 7669,
      "ĠPeter": 7670,
      "Ġbegan": 7671,
      "tage": 7672,
      "Ġperp": 7673,
      "Ġperhaps": 7674,
      "Ġtrack": 7675,
      "though": 7676,
      "ĠGar": 7677,
      "http": 7678,
      "ieras": 7679,
      "uma": 7680,
      "Ġjoy": 7681,
      "ĠTan": 7682,
      "ĠHA": 7683,
      "ĠHa": 7684,
      "ĠHas": 7685,
      "ĠHait": 7686,
      "ieur": 7687,
      "ĠOkay": 7688,
      "ients": 7689,
      "ĠJoint": 7690,
      "Ġplacer": 7691,
      "Ġprel": 7692,
      "ĠWest": 7693,
      "Ġrecuerdo": 7694,
      "Ġmanner": 7695,
      "ensiÃ³n": 7696,
      "Ġactors": 7697,
      "Ġpresencia": 7698,
      "Ġcoinci": 7699,
      "Ġcoffee": 7700,
      "onga": 7701,
      "ĠStan": 7702,
      "ĠStand": 7703,
      "ĠStreet": 7704,
      "Ġdecide": 7705,
      "Ġcruel": 7706,
      "Ġworked": 7707,
      "lesia": 7708,
      "Ġropa": 7709,
      "Ġinternos": 7710,
      "Ġpago": 7711,
      "ĠtransiciÃ³n": 7712,
      "Ġshouldn": 7713,
      "Ġintens": 7714,
      "ĠplanificaciÃ³n": 7715,
      "Ġapply": 7716,
      "Ġpresentado": 7717,
      "Ġdemanda": 7718,
      "Ġincludes": 7719,
      "Ġprotest": 7720,
      "Ġspirit": 7721,
      "Ġllamada": 7722,
      "Ġfuente": 7723,
      "Ġcalcul": 7724,
      "Ġinvestment": 7725,
      "Ġexperts": 7726,
      "arlas": 7727,
      "Ġblind": 7728,
      "Ġadoptadas": 7729,
      "ĠdeberÃ¡n": 7730,
      "Ġinfra": 7731,
      "Ġfinanciera": 7732,
      "ĠWhite": 7733,
      "Ġboat": 7734,
      "Ġputa": 7735,
      "ĠsiguiÃ³": 7736,
      "ĠcampaÃ±a": 7737,
      "Ġensuring": 7738,
      "Ġgreater": 7739,
      "ĠCommissioner": 7740,
      "ĠAfricana": 7741,
      "Ġsemanas": 7742,
      "Ġpregunt": 7743,
      "Ġobligations": 7744,
      "Ġrecommended": 7745,
      "Ġdeclaraciones": 7746,
      "Ġfigure": 7747,
      "Ġpriorities": 7748,
      "Ġcharacter": 7749,
      "Ġprocesses": 7750,
      "Ġterroristas": 7751,
      "Ġinclusive": 7752,
      "Ġcausas": 7753,
      "Ġbenefits": 7754,
      "ĠaprobÃ³": 7755,
      "Ġinstitutional": 7756,
      "ĠChris": 7757,
      "Ġnaturaleza": 7758,
      "ĠXX": 7759,
      "AMID": 7760,
      "Ġnegocio": 7761,
      "ĠadopciÃ³n": 7762,
      "ĠSalud": 7763,
      "Ġvigor": 7764,
      "Ġvigil": 7765,
      "Ġopinion": 7766,
      "Ġobjective": 7767,
      "Ġsectores": 7768,
      "ĠHarry": 7769,
      "Ġguidance": 7770,
      "Ġguidelines": 7771,
      "Ġproposal": 7772,
      "Ġfellow": 7773,
      "gentina": 7774,
      "Ġescrito": 7775,
      "Ġindustrial": 7776,
      "Ġopportunity": 7777,
      "Ġopportunities": 7778,
      "Ġideas": 7779,
      "Ġsolicitudes": 7780,
      "Ġbailar": 7781,
      "Ġdificultades": 7782,
      "ĠmÃŃnimo": 7783,
      "Ġsanciones": 7784,
      "Ġjurisdiction": 7785,
      "Ġessential": 7786,
      "ĠOptional": 7787,
      "atemala": 7788,
      ",\"": 7789,
      "42": 7790,
      "59": 7791,
      "Cr": 7792,
      "CON": 7793,
      "DO": 7794,
      "Fe": 7795,
      "Her": 7796,
      "Habl": 7797,
      "KE": 7798,
      "ODC": 7799,
      "Pa": 7800,
      "Po": 7801,
      "Rem": 7802,
      "Tan": 7803,
      "Tema": 7804,
      "Under": 7805,
      "VI": 7806,
      "afr": 7807,
      "hi": 7808,
      "uke": 7809,
      "ĠtÃŃ": 7810,
      "Ġtim": 7811,
      "enny": 7812,
      "Ġdrop": 7813,
      "inary": 7814,
      "Ġsch": 7815,
      "Ġli": 7816,
      "Ġlen": 7817,
      "Ġpist": 7818,
      "Ġpose": 7819,
      "Ġpint": 7820,
      "Ġpelo": 7821,
      "Ġdeport": 7822,
      "Ġdegrad": 7823,
      "organiz": 7824,
      "rep": 7825,
      "alities": 7826,
      "Ġhu": 7827,
      "Ġham": 7828,
      "adem": 7829,
      "Ġwild": 7830,
      "quina": 7831,
      "ede": 7832,
      "Ġfol": 7833,
      "Ġfabr": 7834,
      "Ġble": 7835,
      "Ġboca": 7836,
      "ingo": 7837,
      "Ġanteriores": 7838,
      "leo": 7839,
      "ilt": 7840,
      "Ġvender": 7841,
      "Ġnobody": 7842,
      "igence": 7843,
      "etic": 7844,
      "ĠSon": 7845,
      "ĠSection": 7846,
      "ĠStock": 7847,
      "irlo": 7848,
      "Ġalma": 7849,
      "Ġsuit": 7850,
      "Ġsuelo": 7851,
      "Ġsujet": 7852,
      "trices": 7853,
      "Ġparecer": 7854,
      "ĠAC": 7855,
      "ulos": 7856,
      "terday": 7857,
      "Ġfort": 7858,
      "Ġcoment": 7859,
      "ĠPat": 7860,
      "usa": 7861,
      "ĠestaciÃ³n": 7862,
      "Ġbeyond": 7863,
      "iciency": 7864,
      "ĠtrÃ¡fico": 7865,
      "estad": 7866,
      "ustain": 7867,
      "Ġexiste": 7868,
      "umbr": 7869,
      "Ġprensa": 7870,
      "ĠTal": 7871,
      "ĠNos": 7872,
      "ĠNam": 7873,
      "Ġhey": 7874,
      "ĠFuer": 7875,
      "ĠFather": 7876,
      "Which": 7877,
      "Ġcub": 7878,
      "Ġimmediately": 7879,
      "QuizÃ¡s": 7880,
      "ĠJa": 7881,
      "ĠJane": 7882,
      "aga": 7883,
      "Ġweeks": 7884,
      "Ġpleno": 7885,
      "Ġcomplement": 7886,
      "Ġcompanies": 7887,
      "Ġamable": 7888,
      "ĠUnit": 7889,
      "ĠWait": 7890,
      "Ġagree": 7891,
      "Esp": 7892,
      "Ġfinales": 7893,
      "moja": 7894,
      "Ġworse": 7895,
      "ugal": 7896,
      "Ġobten": 7897,
      "ualmente": 7898,
      "Ġ32": 7899,
      "Ġrespeto": 7900,
      "Ġrespecta": 7901,
      "Ġrelativos": 7902,
      "Ġmarry": 7903,
      "undi": 7904,
      "Ġhacemos": 7905,
      "Ġseek": 7906,
      "mania": 7907,
      "Ġworksh": 7908,
      "Ġitself": 7909,
      "onsieur": 7910,
      "Ġexpand": 7911,
      "Ġsala": 7912,
      "Ġposterior": 7913,
      "ĠÃ©x": 7914,
      "Ġcorreo": 7915,
      "Ġnecesarios": 7916,
      "ĠProf": 7917,
      "Ġplanta": 7918,
      "Ġplanned": 7919,
      "Ġstrange": 7920,
      "uelo": 7921,
      "Ġlooked": 7922,
      "ĠUNDP": 7923,
      "ĠEnvironment": 7924,
      "Ġseguros": 7925,
      "Ġidi": 7926,
      "iendas": 7927,
      "Ġ75": 7928,
      "Ġdemocr": 7929,
      "Ġtratados": 7930,
      "Ġtratamiento": 7931,
      "Ġgusto": 7932,
      "Ġthroughout": 7933,
      "Ġ80": 7934,
      "Ġexperiment": 7935,
      "Ġsigned": 7936,
      "Ġobser": 7937,
      "coming": 7938,
      "ĠFrancia": 7939,
      "ĠThank": 7940,
      "2005": 7941,
      "Ġbarco": 7942,
      "Ġ1999": 7943,
      "Ġsupervis": 7944,
      "ĠsupervisiÃ³n": 7945,
      "Ġextend": 7946,
      "Ġshows": 7947,
      "Ġsexo": 7948,
      "Todas": 7949,
      "Ġplaying": 7950,
      "Ġrecommendation": 7951,
      "ĠtendrÃŃa": 7952,
      "ĠdomÃ©st": 7953,
      "Ġcomerci": 7954,
      "Ġindependencia": 7955,
      "Ã¡mica": 7956,
      "Ġcump": 7957,
      "loyed": 7958,
      "Ġreceive": 7959,
      "Ġmissing": 7960,
      "Ġpopular": 7961,
      "ĠpÃºblicos": 7962,
      "ĠAgreement": 7963,
      "Ġgrowing": 7964,
      "ĠSomali": 7965,
      "ĠGeorg": 7966,
      "ĠMonitor": 7967,
      "Ġhicieron": 7968,
      "Ġofficials": 7969,
      "Ġadvance": 7970,
      "ĠPersons": 7971,
      "ĠSudÃ¡n": 7972,
      "Ġestrell": 7973,
      "Ġpunish": 7974,
      "Ġdesapar": 7975,
      "ĠTengo": 7976,
      "Ġmecanismos": 7977,
      "Ġpeligros": 7978,
      "Ġataques": 7979,
      "cisiÃ³n": 7980,
      "Ġcaballeros": 7981,
      "Ġfaith": 7982,
      "ĠPopular": 7983,
      "Ġdiablos": 7984,
      "Ġgovernance": 7985,
      "ĠMichael": 7986,
      "ĠJesus": 7987,
      "ĠestratÃ©gico": 7988,
      "Ã³sito": 7989,
      "ĠPrincip": 7990,
      "ĠdesempeÃ±": 7991,
      "Ġgobernanza": 7992,
      "graf": 7993,
      "Ġpiensas": 7994,
      "Ġexercise": 7995,
      "Ġlevant": 7996,
      "Ġsudden": 7997,
      "International": 7998,
      "Ġdollars": 7999
    },
    "merges": [
      [
        "Ġ",
        "t"
      ],
      [
        "Ġ",
        "a"
      ],
      [
        "e",
        "n"
      ],
      [
        "e",
        "s"
      ],
      [
        "e",
        "r"
      ],
      [
        "Ġ",
        "d"
      ],
      [
        "o",
        "n"
      ],
      [
        "i",
        "n"
      ],
      [
        "Ġ",
        "s"
      ],
      [
        "Ġ",
        "l"
      ],
      [
        "Ġ",
        "p"
      ],
      [
        "Ġ",
        "c"
      ],
      [
        "Ġd",
        "e"
      ],
      [
        "a",
        "r"
      ],
      [
        "o",
        "r"
      ],
      [
        "Ġt",
        "h"
      ],
      [
        "o",
        "s"
      ],
      [
        "a",
        "n"
      ],
      [
        "Ġ",
        "m"
      ],
      [
        "a",
        "s"
      ],
      [
        "r",
        "e"
      ],
      [
        "a",
        "t"
      ],
      [
        "c",
        "i"
      ],
      [
        "o",
        "u"
      ],
      [
        "a",
        "l"
      ],
      [
        "Ġ",
        "h"
      ],
      [
        "Ġth",
        "e"
      ],
      [
        "i",
        "t"
      ],
      [
        "i",
        "s"
      ],
      [
        "e",
        "l"
      ],
      [
        "Ġ",
        "y"
      ],
      [
        "Ġ",
        "o"
      ],
      [
        "a",
        "d"
      ],
      [
        "en",
        "t"
      ],
      [
        "Ġ",
        "w"
      ],
      [
        "q",
        "u"
      ],
      [
        "e",
        "d"
      ],
      [
        "Ġ",
        "f"
      ],
      [
        "Ġ",
        "b"
      ],
      [
        "Ġ",
        "n"
      ],
      [
        "o",
        "m"
      ],
      [
        "Ġ",
        "in"
      ],
      [
        "i",
        "c"
      ],
      [
        "u",
        "n"
      ],
      [
        "Ã",
        "³"
      ],
      [
        "Ġt",
        "o"
      ],
      [
        "Ġl",
        "a"
      ],
      [
        "Ġ",
        "qu"
      ],
      [
        "i",
        "on"
      ],
      [
        "in",
        "g"
      ],
      [
        "Ġo",
        "f"
      ],
      [
        "Ġa",
        "n"
      ],
      [
        "Ġ",
        "es"
      ],
      [
        "i",
        "d"
      ],
      [
        "Ã",
        "Ń"
      ],
      [
        "r",
        "o"
      ],
      [
        "e",
        "c"
      ],
      [
        "Ġ",
        "en"
      ],
      [
        "Ġ",
        "g"
      ],
      [
        "Ġqu",
        "e"
      ],
      [
        "a",
        "m"
      ],
      [
        "Ã³",
        "n"
      ],
      [
        "Ġ",
        "el"
      ],
      [
        ".",
        "."
      ],
      [
        "l",
        "e"
      ],
      [
        "Ġ",
        "re"
      ],
      [
        "Ġc",
        "on"
      ],
      [
        "Ġy",
        "ou"
      ],
      [
        "s",
        "t"
      ],
      [
        "Ġan",
        "d"
      ],
      [
        "Ã",
        "¡"
      ],
      [
        "a",
        "ci"
      ],
      [
        "i",
        "l"
      ],
      [
        "Ġ",
        "un"
      ],
      [
        "Ġ",
        "I"
      ],
      [
        "a",
        "b"
      ],
      [
        "Ã",
        "©"
      ],
      [
        "e",
        "m"
      ],
      [
        "i",
        "m"
      ],
      [
        "Ġ",
        "v"
      ],
      [
        "Ġn",
        "o"
      ],
      [
        "o",
        "l"
      ],
      [
        "i",
        "g"
      ],
      [
        "e",
        "t"
      ],
      [
        "Ġ",
        "C"
      ],
      [
        "r",
        "es"
      ],
      [
        "i",
        "v"
      ],
      [
        "Ġ",
        "S"
      ],
      [
        "Ġ",
        "e"
      ],
      [
        "Ġs",
        "e"
      ],
      [
        "i",
        "r"
      ],
      [
        "Ġa",
        "l"
      ],
      [
        "a",
        "c"
      ],
      [
        "Â",
        "¿"
      ],
      [
        "Ġs",
        "u"
      ],
      [
        "at",
        "ion"
      ],
      [
        "t",
        "e"
      ],
      [
        "u",
        "r"
      ],
      [
        "t",
        "r"
      ],
      [
        "Ġl",
        "os"
      ],
      [
        "Ġp",
        "ar"
      ],
      [
        "d",
        "o"
      ],
      [
        "T",
        "h"
      ],
      [
        "Ġ",
        "A"
      ],
      [
        "a",
        "y"
      ],
      [
        "t",
        "o"
      ],
      [
        "Ġm",
        "e"
      ],
      [
        "u",
        "l"
      ],
      [
        "u",
        "t"
      ],
      [
        "t",
        "er"
      ],
      [
        "Ġp",
        "ro"
      ],
      [
        "Ġf",
        "or"
      ],
      [
        "Ġ",
        "M"
      ],
      [
        "Ġ",
        "on"
      ],
      [
        "Ġc",
        "om"
      ],
      [
        "..",
        "."
      ],
      [
        "aci",
        "Ã³n"
      ],
      [
        "Ġl",
        "as"
      ],
      [
        "v",
        "e"
      ],
      [
        "Ġ",
        "P"
      ],
      [
        "'",
        "s"
      ],
      [
        "u",
        "s"
      ],
      [
        "o",
        "w"
      ],
      [
        "Ġes",
        "t"
      ],
      [
        "er",
        "e"
      ],
      [
        "Ġb",
        "e"
      ],
      [
        "Ġ",
        "it"
      ],
      [
        "o",
        "t"
      ],
      [
        "Ġ",
        "2"
      ],
      [
        "Ġde",
        "l"
      ],
      [
        "Ġ",
        "E"
      ],
      [
        "ad",
        "o"
      ],
      [
        "Ġth",
        "at"
      ],
      [
        "i",
        "en"
      ],
      [
        "Ġl",
        "o"
      ],
      [
        "c",
        "h"
      ],
      [
        "Ġh",
        "a"
      ],
      [
        "Ġ",
        "r"
      ],
      [
        "N",
        "o"
      ],
      [
        "m",
        "ent"
      ],
      [
        "t",
        "a"
      ],
      [
        "Ġ",
        "is"
      ],
      [
        "o",
        "d"
      ],
      [
        "i",
        "ci"
      ],
      [
        "Ġ",
        "D"
      ],
      [
        "v",
        "er"
      ],
      [
        "Ġa",
        "s"
      ],
      [
        "Ġw",
        "h"
      ],
      [
        "c",
        "e"
      ],
      [
        "ÃŃ",
        "a"
      ],
      [
        "Ġp",
        "er"
      ],
      [
        "Ġt",
        "r"
      ],
      [
        "Ġpar",
        "a"
      ],
      [
        "Ġ",
        "1"
      ],
      [
        "'",
        "t"
      ],
      [
        "i",
        "f"
      ],
      [
        "c",
        "t"
      ],
      [
        "l",
        "o"
      ],
      [
        "Th",
        "e"
      ],
      [
        "an",
        "t"
      ],
      [
        "Ġp",
        "or"
      ],
      [
        "es",
        "t"
      ],
      [
        "a",
        "p"
      ],
      [
        "l",
        "y"
      ],
      [
        "t",
        "h"
      ],
      [
        "u",
        "st"
      ],
      [
        "Ġ",
        "G"
      ],
      [
        "Ġs",
        "o"
      ],
      [
        "i",
        "b"
      ],
      [
        "it",
        "h"
      ],
      [
        "Ġ",
        "("
      ],
      [
        "Ġe",
        "x"
      ],
      [
        "h",
        "t"
      ],
      [
        "Ġ2",
        "0"
      ],
      [
        "Ġ",
        "R"
      ],
      [
        "Ã",
        "±"
      ],
      [
        "i",
        "z"
      ],
      [
        "k",
        "e"
      ],
      [
        "il",
        "l"
      ],
      [
        "i",
        "er"
      ],
      [
        "Ġun",
        "a"
      ],
      [
        "u",
        "d"
      ],
      [
        "u",
        "m"
      ],
      [
        "u",
        "p"
      ],
      [
        "i",
        "a"
      ],
      [
        "u",
        "e"
      ],
      [
        "or",
        "t"
      ],
      [
        "Ġ",
        "j"
      ],
      [
        "Y",
        "ou"
      ],
      [
        "Ġw",
        "ith"
      ],
      [
        "ec",
        "t"
      ],
      [
        "s",
        "e"
      ],
      [
        "on",
        "es"
      ],
      [
        "l",
        "d"
      ],
      [
        "Ġp",
        "r"
      ],
      [
        "ent",
        "e"
      ],
      [
        "en",
        "d"
      ],
      [
        "Â",
        "¡"
      ],
      [
        "is",
        "t"
      ],
      [
        "Ġ",
        "B"
      ],
      [
        "Ġ",
        "Â¿"
      ],
      [
        "Ġ",
        "res"
      ],
      [
        "r",
        "a"
      ],
      [
        "i",
        "o"
      ],
      [
        "Ġ",
        "T"
      ],
      [
        "Ġ",
        "L"
      ],
      [
        "Ġ",
        "N"
      ],
      [
        "Ġd",
        "o"
      ],
      [
        "ig",
        "ht"
      ],
      [
        "an",
        "d"
      ],
      [
        "g",
        "o"
      ],
      [
        "Ġ",
        "H"
      ],
      [
        "at",
        "e"
      ],
      [
        "Ġl",
        "e"
      ],
      [
        "b",
        "re"
      ],
      [
        "Ġ",
        "U"
      ],
      [
        "Ġh",
        "e"
      ],
      [
        "ou",
        "t"
      ],
      [
        "f",
        "or"
      ],
      [
        "id",
        "ad"
      ],
      [
        "Ġ",
        "k"
      ],
      [
        "Ã¡",
        "s"
      ],
      [
        "o",
        "p"
      ],
      [
        "Ã",
        "º"
      ],
      [
        "Ġd",
        "es"
      ],
      [
        "Ġs",
        "h"
      ],
      [
        "el",
        "l"
      ],
      [
        "n",
        "d"
      ],
      [
        "Ġw",
        "as"
      ],
      [
        "Ġ",
        "or"
      ],
      [
        "i",
        "es"
      ],
      [
        "en",
        "ci"
      ],
      [
        "Ġg",
        "o"
      ],
      [
        "Ġ",
        "F"
      ],
      [
        "Ġm",
        "u"
      ],
      [
        "i",
        "e"
      ],
      [
        "W",
        "h"
      ],
      [
        "Ġ",
        "O"
      ],
      [
        "Ġno",
        "t"
      ],
      [
        "Ġha",
        "ve"
      ],
      [
        "Ġa",
        "re"
      ],
      [
        "ad",
        "a"
      ],
      [
        "Ġ20",
        "1"
      ],
      [
        "i",
        "ent"
      ],
      [
        "p",
        "ort"
      ],
      [
        "l",
        "l"
      ],
      [
        "ou",
        "ld"
      ],
      [
        "Ġa",
        "r"
      ],
      [
        "Ġf",
        "r"
      ],
      [
        "i",
        "Ã³n"
      ],
      [
        "p",
        "e"
      ],
      [
        "an",
        "do"
      ],
      [
        "Ġa",
        "p"
      ],
      [
        "Ġa",
        "t"
      ],
      [
        "g",
        "r"
      ],
      [
        "er",
        "s"
      ],
      [
        "Ġc",
        "h"
      ],
      [
        "Ġa",
        "b"
      ],
      [
        "ad",
        "os"
      ],
      [
        "er",
        "o"
      ],
      [
        "Ġc",
        "u"
      ],
      [
        "iv",
        "e"
      ],
      [
        "Ġa",
        "c"
      ],
      [
        "al",
        "es"
      ],
      [
        "l",
        "ic"
      ],
      [
        "es",
        "s"
      ],
      [
        "Ġ",
        "im"
      ],
      [
        "Ġth",
        "is"
      ],
      [
        "id",
        "o"
      ],
      [
        "Ġp",
        "u"
      ],
      [
        "Ġs",
        "t"
      ],
      [
        "for",
        "m"
      ],
      [
        "Q",
        "u"
      ],
      [
        "o",
        "c"
      ],
      [
        "ec",
        "h"
      ],
      [
        "Ġ",
        "J"
      ],
      [
        "e",
        "p"
      ],
      [
        "a",
        "g"
      ],
      [
        "Ġw",
        "e"
      ],
      [
        "Ġn",
        "e"
      ],
      [
        "p",
        "er"
      ],
      [
        "ou",
        "r"
      ],
      [
        "Ġs",
        "er"
      ],
      [
        "om",
        "e"
      ],
      [
        "ci",
        "Ã³n"
      ],
      [
        "Ġyou",
        "r"
      ],
      [
        "b",
        "er"
      ],
      [
        "Ġp",
        "l"
      ],
      [
        "Ġal",
        "l"
      ],
      [
        "em",
        "p"
      ],
      [
        "a",
        "in"
      ],
      [
        "Ġd",
        "is"
      ],
      [
        "ar",
        "d"
      ],
      [
        "o",
        "y"
      ],
      [
        "it",
        "y"
      ],
      [
        "Ġb",
        "y"
      ],
      [
        "aci",
        "ones"
      ],
      [
        "Ġk",
        "n"
      ],
      [
        "a",
        "j"
      ],
      [
        "Ġp",
        "re"
      ],
      [
        "Ġc",
        "an"
      ],
      [
        "i",
        "p"
      ],
      [
        "ĠC",
        "on"
      ],
      [
        "Ġm",
        "y"
      ],
      [
        "al",
        "l"
      ],
      [
        "ic",
        "a"
      ],
      [
        "ĠC",
        "om"
      ],
      [
        "Ġa",
        "d"
      ],
      [
        "0",
        "0"
      ],
      [
        "Ġcom",
        "p"
      ],
      [
        "Ġin",
        "ter"
      ],
      [
        "Ġa",
        "m"
      ],
      [
        "ĠU",
        "n"
      ],
      [
        "E",
        "l"
      ],
      [
        "Ġpar",
        "t"
      ],
      [
        "Ġ",
        "ent"
      ],
      [
        "c",
        "l"
      ],
      [
        "ation",
        "s"
      ],
      [
        "Ġd",
        "on"
      ],
      [
        "en",
        "er"
      ],
      [
        "'",
        "m"
      ],
      [
        "Ġ",
        "-"
      ],
      [
        "Ġ",
        "W"
      ],
      [
        "Ġa",
        "g"
      ],
      [
        "Ġkn",
        "ow"
      ],
      [
        "Ġt",
        "e"
      ],
      [
        "u",
        "c"
      ],
      [
        "'",
        "re"
      ],
      [
        "ic",
        "e"
      ],
      [
        "Ġre",
        "c"
      ],
      [
        "Ġh",
        "as"
      ],
      [
        "Ġm",
        "i"
      ],
      [
        "d",
        "e"
      ],
      [
        "am",
        "os"
      ],
      [
        "a",
        "v"
      ],
      [
        "Ġm",
        "an"
      ],
      [
        "Ã¡",
        "n"
      ],
      [
        "Ġg",
        "r"
      ],
      [
        "f",
        "f"
      ],
      [
        "ou",
        "n"
      ],
      [
        "E",
        "s"
      ],
      [
        "E",
        "st"
      ],
      [
        "ci",
        "al"
      ],
      [
        "ab",
        "le"
      ],
      [
        "Ġf",
        "in"
      ],
      [
        "ar",
        "t"
      ],
      [
        "er",
        "a"
      ],
      [
        "Ġh",
        "ab"
      ],
      [
        "d",
        "er"
      ],
      [
        "Ġ",
        "us"
      ],
      [
        "Ġc",
        "as"
      ],
      [
        "en",
        "s"
      ],
      [
        "am",
        "b"
      ],
      [
        "I",
        "t"
      ],
      [
        "i",
        "os"
      ],
      [
        "m",
        "o"
      ],
      [
        "Ġso",
        "bre"
      ],
      [
        "c",
        "es"
      ],
      [
        "Ã©",
        "n"
      ],
      [
        "E",
        "n"
      ],
      [
        "Ġv",
        "er"
      ],
      [
        "Ġfr",
        "om"
      ],
      [
        "L",
        "a"
      ],
      [
        "h",
        "er"
      ],
      [
        "Ġm",
        "Ã¡s"
      ],
      [
        "enci",
        "a"
      ],
      [
        "Ġ",
        "&"
      ],
      [
        "Ġw",
        "or"
      ],
      [
        "ul",
        "t"
      ],
      [
        "g",
        "u"
      ],
      [
        "Ġcon",
        "t"
      ],
      [
        "Ġa",
        "ct"
      ],
      [
        "Ġin",
        "form"
      ],
      [
        "'",
        "ll"
      ],
      [
        "Ġcom",
        "o"
      ],
      [
        "Ġs",
        "i"
      ],
      [
        "Ġp",
        "res"
      ],
      [
        "an",
        "te"
      ],
      [
        "a",
        "ke"
      ],
      [
        "on",
        "e"
      ],
      [
        "an",
        "s"
      ],
      [
        "Ġre",
        "g"
      ],
      [
        "o",
        "k"
      ],
      [
        "Ġ",
        "out"
      ],
      [
        "Ġ",
        "up"
      ],
      [
        "f",
        "er"
      ],
      [
        "Ġr",
        "ight"
      ],
      [
        "i",
        "re"
      ],
      [
        "H",
        "e"
      ],
      [
        "Ġpu",
        "ed"
      ],
      [
        "s",
        "on"
      ],
      [
        "ĠI",
        "n"
      ],
      [
        "or",
        "a"
      ],
      [
        "u",
        "g"
      ],
      [
        "em",
        "os"
      ],
      [
        "g",
        "an"
      ],
      [
        "Ġh",
        "er"
      ],
      [
        "Ġc",
        "o"
      ],
      [
        "Ġcon",
        "s"
      ],
      [
        "Ġim",
        "p"
      ],
      [
        "ient",
        "o"
      ],
      [
        "t",
        "ar"
      ],
      [
        "a",
        "k"
      ],
      [
        "Ġw",
        "ill"
      ],
      [
        "Ġc",
        "ar"
      ],
      [
        "ou",
        "g"
      ],
      [
        "am",
        "e"
      ],
      [
        "u",
        "re"
      ],
      [
        "Ġo",
        "b"
      ],
      [
        "m",
        "it"
      ],
      [
        "ac",
        "e"
      ],
      [
        "v",
        "en"
      ],
      [
        "ion",
        "s"
      ],
      [
        "u",
        "er"
      ],
      [
        "ic",
        "h"
      ],
      [
        "um",
        "an"
      ],
      [
        "l",
        "a"
      ],
      [
        "i",
        "ke"
      ],
      [
        "Ġp",
        "ol"
      ],
      [
        "ation",
        "al"
      ],
      [
        "Ġest",
        "Ã¡"
      ],
      [
        "Ġ",
        "Y"
      ],
      [
        "tr",
        "a"
      ],
      [
        "on",
        "g"
      ],
      [
        "Ġto",
        "d"
      ],
      [
        "Ġh",
        "im"
      ],
      [
        "Wh",
        "at"
      ],
      [
        "or",
        "d"
      ],
      [
        "u",
        "al"
      ],
      [
        "Ġ",
        "3"
      ],
      [
        "Ġwh",
        "at"
      ],
      [
        "Ġh",
        "ere"
      ],
      [
        "os",
        "t"
      ],
      [
        "an",
        "ce"
      ],
      [
        "u",
        "es"
      ],
      [
        "ic",
        "o"
      ],
      [
        "Ġ",
        "K"
      ],
      [
        "i",
        "Ã©n"
      ],
      [
        "aci",
        "on"
      ],
      [
        "ac",
        "t"
      ],
      [
        "b",
        "r"
      ],
      [
        "Ġth",
        "ere"
      ],
      [
        "Ġj",
        "ust"
      ],
      [
        "s",
        "o"
      ],
      [
        "m",
        "e"
      ],
      [
        "g",
        "e"
      ],
      [
        "ac",
        "k"
      ],
      [
        "Ġg",
        "et"
      ],
      [
        "v",
        "el"
      ],
      [
        "id",
        "a"
      ],
      [
        "e",
        "a"
      ],
      [
        "Ġ",
        "No"
      ],
      [
        "c",
        "u"
      ],
      [
        "in",
        "k"
      ],
      [
        "Ġc",
        "re"
      ],
      [
        "ener",
        "al"
      ],
      [
        "Ġres",
        "p"
      ],
      [
        "u",
        "en"
      ],
      [
        "Ġper",
        "son"
      ],
      [
        "Ġ",
        "V"
      ],
      [
        "b",
        "lic"
      ],
      [
        "Ġt",
        "en"
      ],
      [
        "Qu",
        "Ã©"
      ],
      [
        "Ġab",
        "out"
      ],
      [
        "j",
        "o"
      ],
      [
        "ĠS",
        "t"
      ],
      [
        "th",
        "er"
      ],
      [
        "Ġan",
        "y"
      ],
      [
        "as",
        "e"
      ],
      [
        "ĠE",
        "st"
      ],
      [
        "Ġl",
        "ike"
      ],
      [
        "Ġm",
        "ed"
      ],
      [
        "p",
        "t"
      ],
      [
        "Ġon",
        "e"
      ],
      [
        "at",
        "ed"
      ],
      [
        "id",
        "as"
      ],
      [
        "Ġw",
        "ant"
      ],
      [
        "Ġm",
        "is"
      ],
      [
        "a",
        "z"
      ],
      [
        "or",
        "e"
      ],
      [
        "I",
        "n"
      ],
      [
        "im",
        "e"
      ],
      [
        "Ġbe",
        "en"
      ],
      [
        "en",
        "ce"
      ],
      [
        "qu",
        "e"
      ],
      [
        "Ġre",
        "l"
      ],
      [
        "Ġqu",
        "Ã©"
      ],
      [
        "e",
        "g"
      ],
      [
        "l",
        "ar"
      ],
      [
        "qu",
        "ÃŃ"
      ],
      [
        "p",
        "l"
      ],
      [
        "in",
        "e"
      ],
      [
        "Ġthe",
        "y"
      ],
      [
        "c",
        "o"
      ],
      [
        "n",
        "a"
      ],
      [
        "ar",
        "y"
      ],
      [
        "Ġp",
        "as"
      ],
      [
        "at",
        "iv"
      ],
      [
        "Ġmu",
        "ch"
      ],
      [
        "os",
        "e"
      ],
      [
        "Ġb",
        "ut"
      ],
      [
        "Ġm",
        "ar"
      ],
      [
        "or",
        "es"
      ],
      [
        "Ġt",
        "u"
      ],
      [
        "un",
        "d"
      ],
      [
        "i",
        "al"
      ],
      [
        "Ġw",
        "ere"
      ],
      [
        "ou",
        "s"
      ],
      [
        "Ġb",
        "ien"
      ],
      [
        "ab",
        "a"
      ],
      [
        "is",
        "h"
      ],
      [
        "Ġp",
        "e"
      ],
      [
        "it",
        "u"
      ],
      [
        "o",
        "g"
      ],
      [
        "Ġin",
        "d"
      ],
      [
        "gr",
        "am"
      ],
      [
        "Ġ",
        "\""
      ],
      [
        "Ġde",
        "ci"
      ],
      [
        "W",
        "e"
      ],
      [
        "ĠC",
        "h"
      ],
      [
        "m",
        "a"
      ],
      [
        "em",
        "ent"
      ],
      [
        "in",
        "a"
      ],
      [
        "Ġre",
        "al"
      ],
      [
        "er",
        "r"
      ],
      [
        "Ġh",
        "ac"
      ],
      [
        "Ġs",
        "ol"
      ],
      [
        "Ġd",
        "id"
      ],
      [
        "Ġc",
        "r"
      ],
      [
        "e",
        "z"
      ],
      [
        "Ġsu",
        "s"
      ],
      [
        "am",
        "ente"
      ],
      [
        "P",
        "or"
      ],
      [
        "u",
        "ct"
      ],
      [
        "Ġt",
        "ien"
      ],
      [
        "ec",
        "es"
      ],
      [
        "i",
        "an"
      ],
      [
        "Ġw",
        "ould"
      ],
      [
        "m",
        "in"
      ],
      [
        "p",
        "ar"
      ],
      [
        "ion",
        "es"
      ],
      [
        "Ġg",
        "ot"
      ],
      [
        "ac",
        "h"
      ],
      [
        "Ġh",
        "ad"
      ],
      [
        "ig",
        "n"
      ],
      [
        "A",
        "nd"
      ],
      [
        "Th",
        "at"
      ],
      [
        "Ġpro",
        "v"
      ],
      [
        "le",
        "g"
      ],
      [
        "Ã±",
        "os"
      ],
      [
        "ad",
        "as"
      ],
      [
        "d",
        "ad"
      ],
      [
        "Ġm",
        "at"
      ],
      [
        "Ġin",
        "cl"
      ],
      [
        "ro",
        "l"
      ],
      [
        "Ġ",
        "Â¡"
      ],
      [
        "er",
        "ech"
      ],
      [
        "n",
        "o"
      ],
      [
        "c",
        "a"
      ],
      [
        "ion",
        "al"
      ],
      [
        "e",
        "ar"
      ],
      [
        "Ġ",
        "The"
      ],
      [
        "'",
        "ve"
      ],
      [
        "i",
        "Ã³"
      ],
      [
        "Ġh",
        "uman"
      ],
      [
        "Ġa",
        "quÃŃ"
      ],
      [
        "Ġes",
        "to"
      ],
      [
        "Ġ",
        "5"
      ],
      [
        "Ġde",
        "b"
      ],
      [
        "Ġth",
        "ink"
      ],
      [
        "as",
        "t"
      ],
      [
        "Ġg",
        "u"
      ],
      [
        ")",
        "."
      ],
      [
        "ib",
        "le"
      ],
      [
        "qu",
        "ot"
      ],
      [
        "Ġse",
        "e"
      ],
      [
        "il",
        "d"
      ],
      [
        "Ġsu",
        "p"
      ],
      [
        "D",
        "e"
      ],
      [
        "if",
        "ic"
      ],
      [
        "m",
        "an"
      ],
      [
        "on",
        "d"
      ],
      [
        "ou",
        "nd"
      ],
      [
        "Ġwor",
        "k"
      ],
      [
        "ic",
        "al"
      ],
      [
        "S",
        "e"
      ],
      [
        "it",
        "ies"
      ],
      [
        "at",
        "es"
      ],
      [
        "it",
        "ed"
      ],
      [
        "Ġper",
        "o"
      ],
      [
        "Ġ",
        "if"
      ],
      [
        "id",
        "e"
      ],
      [
        "o",
        "b"
      ],
      [
        "l",
        "es"
      ],
      [
        "Ġh",
        "is"
      ],
      [
        "Ġit",
        "s"
      ],
      [
        "j",
        "er"
      ],
      [
        "Ġm",
        "in"
      ],
      [
        "Ġin",
        "st"
      ],
      [
        "Ġs",
        "ome"
      ],
      [
        "Ġthe",
        "m"
      ],
      [
        "Ġp",
        "od"
      ],
      [
        "on",
        "s"
      ],
      [
        "Ġ",
        "ro"
      ],
      [
        "oug",
        "h"
      ],
      [
        "amb",
        "iÃ©n"
      ],
      [
        "c",
        "ul"
      ],
      [
        "s",
        "ion"
      ],
      [
        "an",
        "ci"
      ],
      [
        "â",
        "Ģ"
      ],
      [
        "Ġin",
        "v"
      ],
      [
        "idad",
        "es"
      ],
      [
        "r",
        "y"
      ],
      [
        "Ġpro",
        "p"
      ],
      [
        "Ãº",
        "n"
      ],
      [
        "Ã©",
        "s"
      ],
      [
        "Ġ201",
        "3"
      ],
      [
        "ec",
        "re"
      ],
      [
        "vel",
        "op"
      ],
      [
        "Ġs",
        "in"
      ],
      [
        "Ġn",
        "i"
      ],
      [
        "Ġto",
        "do"
      ],
      [
        "Ġm",
        "ay"
      ],
      [
        "ab",
        "aj"
      ],
      [
        "Ġs",
        "ab"
      ],
      [
        "Ġ20",
        "0"
      ],
      [
        "2",
        "0"
      ],
      [
        "ĠA",
        "s"
      ],
      [
        "Ġt",
        "i"
      ],
      [
        "em",
        "b"
      ],
      [
        "es",
        "e"
      ],
      [
        "f",
        "r"
[...]
